{
  "version": "1.0",
  "truncation": null,
  "padding": null,
  "added_tokens": [
    {
      "id": 0,
      "content": "<|pad|>",
      "single_word": false,
      "lstrip": false,
      "rstrip": false,
      "normalized": false,
      "special": true
    },
    {
      "id": 1,
      "content": "<|bos|>",
      "single_word": false,
      "lstrip": false,
      "rstrip": false,
      "normalized": false,
      "special": true
    },
    {
      "id": 2,
      "content": "<|eos|>",
      "single_word": false,
      "lstrip": false,
      "rstrip": false,
      "normalized": false,
      "special": true
    },
    {
      "id": 3,
      "content": "<|unk|>",
      "single_word": false,
      "lstrip": false,
      "rstrip": false,
      "normalized": false,
      "special": true
    },
    {
      "id": 4,
      "content": "<|fim_prefix|>",
      "single_word": false,
      "lstrip": false,
      "rstrip": false,
      "normalized": false,
      "special": true
    },
    {
      "id": 5,
      "content": "<|fim_middle|>",
      "single_word": false,
      "lstrip": false,
      "rstrip": false,
      "normalized": false,
      "special": true
    },
    {
      "id": 6,
      "content": "<|fim_suffix|>",
      "single_word": false,
      "lstrip": false,
      "rstrip": false,
      "normalized": false,
      "special": true
    }
  ],
  "normalizer": null,
  "pre_tokenizer": {
    "type": "ByteLevel",
    "add_prefix_space": false,
    "trim_offsets": true,
    "use_regex": true
  },
  "post_processor": null,
  "decoder": {
    "type": "ByteLevel",
    "add_prefix_space": true,
    "trim_offsets": true,
    "use_regex": true
  },
  "model": {
    "type": "BPE",
    "dropout": null,
    "unk_token": null,
    "continuing_subword_prefix": null,
    "end_of_word_suffix": null,
    "fuse_unk": false,
    "byte_fallback": false,
    "ignore_merges": false,
    "vocab": {
      "<|pad|>": 0,
      "<|bos|>": 1,
      "<|eos|>": 2,
      "<|unk|>": 3,
      "<|fim_prefix|>": 4,
      "<|fim_middle|>": 5,
      "<|fim_suffix|>": 6,
      "!": 7,
      "\"": 8,
      "#": 9,
      "$": 10,
      "%": 11,
      "&": 12,
      "'": 13,
      "(": 14,
      ")": 15,
      "*": 16,
      "+": 17,
      ",": 18,
      "-": 19,
      ".": 20,
      "/": 21,
      "0": 22,
      "1": 23,
      "2": 24,
      "3": 25,
      "4": 26,
      "5": 27,
      "6": 28,
      "7": 29,
      "8": 30,
      "9": 31,
      ":": 32,
      ";": 33,
      "<": 34,
      "=": 35,
      ">": 36,
      "?": 37,
      "@": 38,
      "A": 39,
      "B": 40,
      "C": 41,
      "D": 42,
      "E": 43,
      "F": 44,
      "G": 45,
      "H": 46,
      "I": 47,
      "J": 48,
      "K": 49,
      "L": 50,
      "M": 51,
      "N": 52,
      "O": 53,
      "P": 54,
      "Q": 55,
      "R": 56,
      "S": 57,
      "T": 58,
      "U": 59,
      "V": 60,
      "W": 61,
      "X": 62,
      "Y": 63,
      "Z": 64,
      "[": 65,
      "\\": 66,
      "]": 67,
      "^": 68,
      "_": 69,
      "`": 70,
      "a": 71,
      "b": 72,
      "c": 73,
      "d": 74,
      "e": 75,
      "f": 76,
      "g": 77,
      "h": 78,
      "i": 79,
      "j": 80,
      "k": 81,
      "l": 82,
      "m": 83,
      "n": 84,
      "o": 85,
      "p": 86,
      "q": 87,
      "r": 88,
      "s": 89,
      "t": 90,
      "u": 91,
      "v": 92,
      "w": 93,
      "x": 94,
      "y": 95,
      "z": 96,
      "{": 97,
      "|": 98,
      "}": 99,
      "~": 100,
      "¡": 101,
      "¢": 102,
      "£": 103,
      "¤": 104,
      "¥": 105,
      "¦": 106,
      "§": 107,
      "¨": 108,
      "©": 109,
      "ª": 110,
      "«": 111,
      "¬": 112,
      "®": 113,
      "¯": 114,
      "°": 115,
      "±": 116,
      "²": 117,
      "³": 118,
      "´": 119,
      "µ": 120,
      "¶": 121,
      "·": 122,
      "¸": 123,
      "¹": 124,
      "º": 125,
      "»": 126,
      "¼": 127,
      "½": 128,
      "¾": 129,
      "¿": 130,
      "À": 131,
      "Á": 132,
      "Â": 133,
      "Ã": 134,
      "Ä": 135,
      "Å": 136,
      "Æ": 137,
      "Ç": 138,
      "È": 139,
      "É": 140,
      "Ê": 141,
      "Ë": 142,
      "Ì": 143,
      "Í": 144,
      "Î": 145,
      "Ï": 146,
      "Ð": 147,
      "Ñ": 148,
      "Ò": 149,
      "Ó": 150,
      "Ô": 151,
      "Õ": 152,
      "Ö": 153,
      "×": 154,
      "Ø": 155,
      "Ù": 156,
      "Ú": 157,
      "Û": 158,
      "Ü": 159,
      "Ý": 160,
      "Þ": 161,
      "ß": 162,
      "à": 163,
      "á": 164,
      "â": 165,
      "ã": 166,
      "ä": 167,
      "å": 168,
      "æ": 169,
      "ç": 170,
      "è": 171,
      "é": 172,
      "ê": 173,
      "ë": 174,
      "ì": 175,
      "í": 176,
      "î": 177,
      "ï": 178,
      "ð": 179,
      "ñ": 180,
      "ò": 181,
      "ó": 182,
      "ô": 183,
      "õ": 184,
      "ö": 185,
      "÷": 186,
      "ø": 187,
      "ù": 188,
      "ú": 189,
      "û": 190,
      "ü": 191,
      "ý": 192,
      "þ": 193,
      "ÿ": 194,
      "Ā": 195,
      "ā": 196,
      "Ă": 197,
      "ă": 198,
      "Ą": 199,
      "ą": 200,
      "Ć": 201,
      "ć": 202,
      "Ĉ": 203,
      "ĉ": 204,
      "Ċ": 205,
      "ċ": 206,
      "Č": 207,
      "č": 208,
      "Ď": 209,
      "ď": 210,
      "Đ": 211,
      "đ": 212,
      "Ē": 213,
      "ē": 214,
      "Ĕ": 215,
      "ĕ": 216,
      "Ė": 217,
      "ė": 218,
      "Ę": 219,
      "ę": 220,
      "Ě": 221,
      "ě": 222,
      "Ĝ": 223,
      "ĝ": 224,
      "Ğ": 225,
      "ğ": 226,
      "Ġ": 227,
      "ġ": 228,
      "Ģ": 229,
      "ģ": 230,
      "Ĥ": 231,
      "ĥ": 232,
      "Ħ": 233,
      "ħ": 234,
      "Ĩ": 235,
      "ĩ": 236,
      "Ī": 237,
      "ī": 238,
      "Ĭ": 239,
      "ĭ": 240,
      "Į": 241,
      "į": 242,
      "İ": 243,
      "ı": 244,
      "Ĳ": 245,
      "ĳ": 246,
      "Ĵ": 247,
      "ĵ": 248,
      "Ķ": 249,
      "ķ": 250,
      "ĸ": 251,
      "Ĺ": 252,
      "ĺ": 253,
      "Ļ": 254,
      "ļ": 255,
      "Ľ": 256,
      "ľ": 257,
      "Ŀ": 258,
      "ŀ": 259,
      "Ł": 260,
      "ł": 261,
      "Ń": 262,
      "ĠĠ": 263,
      "ĠĠĠĠ": 264,
      "čĊ": 265,
      "ĠĠĠ": 266,
      "ĠĠĠĠĠĠĠĠ": 267,
      "on": 268,
      "er": 269,
      "re": 270,
      "in": 271,
      "st": 272,
      "at": 273,
      "Ġ=": 274,
      "le": 275,
      "or": 276,
      "Ġ{": 277,
      "th": 278,
      "en": 279,
      "ĠĠĠĠĠĠĠ": 280,
      ");": 281,
      "ct": 282,
      "ar": 283,
      "Ġ}": 284,
      "se": 285,
      "ion": 286,
      "Ġc": 287,
      "ro": 288,
      "al": 289,
      "is": 290,
      "de": 291,
      "an": 292,
      "Ġf": 293,
      "ĠĠĠĠĠ": 294,
      "Ġth": 295,
      "ĠĠĠĠĠĠĠĠĠĠĠ": 296,
      "it": 297,
      "ent": 298,
      "Ġ'": 299,
      "me": 300,
      "ĉĉ": 301,
      "ge": 302,
      "Ġ*": 303,
      "Ġ\"": 304,
      "Ġ(": 305,
      "un": 306,
      "Ġre": 307,
      "ur": 308,
      "Ġt": 309,
      "ex": 310,
      "ing": 311,
      "es": 312,
      "Ġa": 313,
      "Ġp": 314,
      "ate": 315,
      "Ġn": 316,
      "ic": 317,
      "ut": 318,
      "mp": 319,
      "ue": 320,
      "pe": 321,
      "//": 322,
      "if": 323,
      "ction": 324,
      "--": 325,
      "ul": 326,
      "ččĊ": 327,
      "id": 328,
      "ĠĠĠĠĠĠĠĠĠĠĠĠĠĠĠ": 329,
      "lo": 330,
      "ed": 331,
      "Ġv": 332,
      "',": 333,
      "ss": 334,
      "ame": 335,
      "ch": 336,
      "la": 337,
      "Ġcon": 338,
      "ort": 339,
      "Ġs": 340,
      "el": 341,
      "Ġthis": 342,
      "ad": 343,
      "co": 344,
      "**": 345,
      "\",": 346,
      "Ġo": 347,
      "Ġb": 348,
      "urn": 349,
      "turn": 350,
      "ig": 351,
      "('": 352,
      "il": 353,
      "ce": 354,
      "Ġst": 355,
      "()": 356,
      "Ġd": 357,
      "ck": 358,
      "unction": 359,
      "Ġ<": 360,
      "ol": 361,
      "Ġthe": 362,
      "ap": 363,
      "rom": 364,
      "Ġm": 365,
      "get": 366,
      "con": 367,
      "um": 368,
      "==": 369,
      "Ġif": 370,
      "ext": 371,
      "pt": 372,
      "St": 373,
      "Ġconst": 374,
      "Ġ1": 375,
      "Ġreturn": 376,
      "ype": 377,
      "ri": 378,
      "age": 379,
      "ot": 380,
      "ode": 381,
      "ĠĠĠĠĠĠĠĠĠ": 382,
      "ring": 383,
      "ew": 384,
      "Ġ=>": 385,
      "Ġin": 386,
      "ab": 387,
      "ĠĠĠĠĠĠĠĠĠĠĠĠĠĠĠĠĠĠĠ": 388,
      "In": 389,
      "Ġw": 390,
      "us": 391,
      "Ġ+": 392,
      "ter": 393,
      "ata": 394,
      "ect": 395,
      "ation": 396,
      "ra": 397,
      "od": 398,
      "ve": 399,
      ").": 400,
      "Ġ[": 401,
      "imp": 402,
      "ult": 403,
      "ht": 404,
      "qu": 405,
      "----": 406,
      "Ġfrom": 407,
      "Ġ//": 408,
      "as": 409,
      "Re": 410,
      "set": 411,
      "\":": 412,
      "this": 413,
      "alue": 414,
      "Con": 415,
      "li": 416,
      "import": 417,
      "ment": 418,
      "Ġ@": 419,
      "to": 420,
      "Ġfunction": 421,
      "rop": 422,
      "ption": 423,
      "..": 424,
      "em": 425,
      "Ġvar": 426,
      "he": 427,
      "et": 428,
      "ile": 429,
      "and": 430,
      "ĠT": 431,
      "Ġ},": 432,
      "up": 433,
      "ow": 434,
      "ject": 435,
      "Ġto": 436,
      "();": 437,
      "am": 438,
      "ert": 439,
      "Ġ0": 440,
      "';": 441,
      "Ġ/": 442,
      "00": 443,
      "port": 444,
      "(\"": 445,
      "Ġde": 446,
      "let": 447,
      "able": 448,
      "ror": 449,
      "Ġ*/": 450,
      "fa": 451,
      "ub": 452,
      "Ġ});": 453,
      "om": 454,
      "ey": 455,
      "ers": 456,
      "Name": 457,
      "res": 458,
      "end": 459,
      "Id": 460,
      "all": 461,
      "lic": 462,
      "ist": 463,
      "ren": 464,
      "lass": 465,
      "ack": 466,
      "orm": 467,
      "Ġtr": 468,
      "Ġh": 469,
      "Ġ2": 470,
      "iz": 471,
      "Ġis": 472,
      "Ġex": 473,
      "Ġstring": 474,
      "Ġ-": 475,
      "=\"": 476,
      "ase": 477,
      "Ġnew": 478,
      "der": 479,
      "bject": 480,
      "ĠA": 481,
      "ta": 482,
      "ath": 483,
      "oc": 484,
      "di": 485,
      "ptions": 486,
      "],": 487,
      "Ġof": 488,
      "ĉĉĉ": 489,
      "Ġ|": 490,
      "est": 491,
      "art": 492,
      "')": 493,
      "Ġ_": 494,
      "erv": 495,
      "Ġe": 496,
      "umb": 497,
      "ess": 498,
      "Ġres": 499,
      "ĠS": 500,
      "ĠP": 501,
      "ĠC": 502,
      "Ġ$": 503,
      "ĠĠĠĠĠĠĠĠĠĠĠĠĠĠĠĠ": 504,
      "ull": 505,
      "name": 506,
      "');": 507,
      "unt": 508,
      "vent": 509,
      "use": 510,
      "export": 511,
      "aram": 512,
      "Ġ&": 513,
      "fin": 514,
      "****": 515,
      "im": 516,
      "put": 517,
      "={": 518,
      "ight": 519,
      "ire": 520,
      "ng": 521,
      "oo": 522,
      "._": 523,
      "out": 524,
      "lin": 525,
      "umber": 526,
      "lement": 527,
      "yle": 528,
      "os": 529,
      "tr": 530,
      "Ġ:": 531,
      "act": 532,
      "que": 533,
      "Ġ()": 534,
      "omp": 535,
      "--------": 536,
      "Ġfor": 537,
      "app": 538,
      "ir": 539,
      "Ġg": 540,
      "Ġit": 541,
      "Ġ&&": 542,
      "../": 543,
      "const": 544,
      "our": 545,
      "({": 546,
      "text": 547,
      "ice": 548,
      "Ġ===": 549,
      "key": 550,
      "fault": 551,
      "Ġas": 552,
      "op": 553,
      "Ġan": 554,
      "ule": 555,
      "\";": 556,
      "pon": 557,
      "wa": 558,
      "pect": 559,
      "dex": 560,
      "Ġon": 561,
      "ith": 562,
      "sh": 563,
      "ĠM": 564,
      "mo": 565,
      "onent": 566,
      "rent": 567,
      "alse": 568,
      "var": 569,
      "Ġtrue": 570,
      "ĉĉĉĉ": 571,
      "ĠD": 572,
      "Res": 573,
      "];": 574,
      "ime": 575,
      "),": 576,
      "ff": 577,
      "js": 578,
      "ray": 579,
      "ĠĠĠĠĠĠĠĠĠĠĠĠĠĠĠĠĠĠĠĠĠĠĠ": 580,
      "fig": 581,
      "Ġ.": 582,
      "error": 583,
      "ind": 584,
      "sc": 585,
      "ver": 586,
      "ange": 587,
      "function": 588,
      "ly": 589,
      "lect": 590,
      "Ġ!": 591,
      "ĠL": 592,
      "pro": 593,
      "Ġse": 594,
      "ĠI": 595,
      "pa": 596,
      "int": 597,
      "lay": 598,
      "row": 599,
      "reate": 600,
      "ore": 601,
      "atch": 602,
      "?:": 603,
      "log": 604,
      "leng": 605,
      "length": 606,
      "ĠE": 607,
      "load": 608,
      "yn": 609,
      "Ġnull": 610,
      "quest": 611,
      "ild": 612,
      "rops": 613,
      "ize": 614,
      "</": 615,
      "Se": 616,
      "Ġvalue": 617,
      "Ġget": 618,
      "Ġ3": 619,
      "Ġel": 620,
      "ity": 621,
      "ĠĠĠĠĠĠĠĠĠĠĠĠĠ": 622,
      "param": 623,
      "))": 624,
      "ser": 625,
      "tent": 626,
      "To": 627,
      "Ġ/**": 628,
      "Ch": 629,
      "ans": 630,
      "Ġ`": 631,
      "pp": 632,
      "Type": 633,
      "Ġi": 634,
      "Ġ||": 635,
      "ponse": 636,
      "Ar": 637,
      "Ġme": 638,
      "},": 639,
      "Ġclass": 640,
      "ial": 641,
      "Ġfalse": 642,
      "Ġtype": 643,
      "data": 644,
      "Ġ</": 645,
      "Ġun": 646,
      "iew": 647,
      "ive": 648,
      "ay": 649,
      "Ġexpect": 650,
      "Ġ};": 651,
      "Data": 652,
      "ust": 653,
      "wait": 654,
      "Ġlet": 655,
      "ag": 656,
      "};": 657,
      "Ġbe": 658,
      "Ġ?": 659,
      "tp": 660,
      "quire": 661,
      "und": 662,
      "add": 663,
      "):": 664,
      "\");": 665,
      "code": 666,
      "ĠRe": 667,
      "Ġname": 668,
      "rror": 669,
      "type": 670,
      "ync": 671,
      "ource": 672,
      "./": 673,
      "return": 674,
      "ervice": 675,
      "div": 676,
      "ĠO": 677,
      "arg": 678,
      "ument": 679,
      "value": 680,
      "Ġ+=": 681,
      "ach": 682,
      "ition": 683,
      "De": 684,
      "ator": 685,
      "Ġr": 686,
      "Ġdata": 687,
      "rib": 688,
      "odule": 689,
      "====": 690,
      "Ġ})": 691,
      "ery": 692,
      "Node": 693,
      "cess": 694,
      "ropert": 695,
      "back": 696,
      "Ġelse": 697,
      "user": 698,
      "ak": 699,
      "ĠB": 700,
      "tain": 701,
      "ign": 702,
      "Col": 703,
      "Pro": 704,
      "omponent": 705,
      "qual": 706,
      "eld": 707,
      "date": 708,
      "ssage": 709,
      "defin": 710,
      "ield": 711,
      "/**": 712,
      "com": 713,
      "Ġpro": 714,
      "ĠF": 715,
      "__": 716,
      "rol": 717,
      "form": 718,
      "so": 719,
      "Ġset": 720,
      "Ex": 721,
      "ies": 722,
      "http": 723,
      "ord": 724,
      "ON": 725,
      "ĠThe": 726,
      "Ġawait": 727,
      "string": 728,
      "Ġand": 729,
      "idth": 730,
      "State": 731,
      "file": 732,
      "po": 733,
      "ĠG": 734,
      "ress": 735,
      "ton": 736,
      "].": 737,
      "ax": 738,
      "utton": 739,
      "Ġnumber": 740,
      "dd": 741,
      "col": 742,
      "TR": 743,
      "ance": 744,
      "lient": 745,
      "count": 746,
      "01": 747,
      "ug": 748,
      "Element": 749,
      "ure": 750,
      "ide": 751,
      "Value": 752,
      "lab": 753,
      "En": 754,
      "val": 755,
      "String": 756,
      "defined": 757,
      "List": 758,
      "ise": 759,
      "ory": 760,
      "Ġ>": 761,
      "ssert": 762,
      "ail": 763,
      "roup": 764,
      "Key": 765,
      "Ġ);": 766,
      "urrent": 767,
      "sp": 768,
      "Ġch": 769,
      "ork": 770,
      "one": 771,
      "ip": 772,
      "atus": 773,
      "ac": 774,
      "Ġuse": 775,
      "av": 776,
      "\">": 777,
      "ĠU": 778,
      "********": 779,
      "odel": 780,
      "lean": 781,
      "own": 782,
      "Ġid": 783,
      "ody": 784,
      "});": 785,
      "allback": 786,
      "ang": 787,
      "Ġy": 788,
      "${": 789,
      "line": 790,
      "comp": 791,
      "itle": 792,
      "iv": 793,
      "ant": 794,
      "':": 795,
      "ard": 796,
      "roperty": 797,
      "ER": 798,
      "ĠN": 799,
      "Ġsh": 800,
      "){": 801,
      "GL": 802,
      "eb": 803,
      "Error": 804,
      "Object": 805,
      "ute": 806,
      "ocument": 807,
      "Ġor": 808,
      "og": 809,
      "Ġany": 810,
      "Ġdefault": 811,
      "fo": 812,
      "ublic": 813,
      "list": 814,
      "Text": 815,
      "ken": 816,
      "Ġnot": 817,
      "ix": 818,
      "bo": 819,
      "oolean": 820,
      "lock": 821,
      "ec": 822,
      "Ġrequire": 823,
      "romise": 824,
      "tem": 825,
      "uld": 826,
      "ĠH": 827,
      "Ġ(!": 828,
      "ould": 829,
      "Service": 830,
      "uth": 831,
      "uct": 832,
      "Ġoptions": 833,
      "://": 834,
      "arget": 835,
      "));": 836,
      "ĠĠĠĠĠĠĠĠĠĠĠĠĠĠĠĠĠĠĠĠĠĠĠĠĠĠĠ": 837,
      "tainer": 838,
      "Ġwh": 839,
      "File": 840,
      "Ġkey": 841,
      "----------------": 842,
      "['": 843,
      "TRGL": 844,
      "Ġcol": 845,
      "oid": 846,
      "sole": 847,
      "////": 848,
      "ilter": 849,
      "emp": 850,
      "ft": 851,
      "isp": 852,
      "Event": 853,
      "Item": 854,
      "ark": 855,
      "ca": 856,
      "arch": 857,
      "ain": 858,
      "riv": 859,
      "ref": 860,
      "ill": 861,
      "ash": 862,
      "yp": 863,
      "err": 864,
      "Ġwith": 865,
      "...": 866,
      "omm": 867,
      "Time": 868,
      "Ġ4": 869,
      "arse": 870,
      "state": 871,
      "12": 872,
      "Ġ/>": 873,
      "late": 874,
      "trol": 875,
      "').": 876,
      "per": 877,
      "Ġj": 878,
      "ml": 879,
      "ost": 880,
      "By": 881,
      "ĠR": 882,
      "map": 883,
      "Ġ)": 884,
      "ount": 885,
      "ite": 886,
      "10": 887,
      "ave": 888,
      "ler": 889,
      "move": 890,
      "ry": 891,
      "low": 892,
      "Ġundefined": 893,
      "Ġerror": 894,
      "ener": 895,
      "index": 896,
      "test": 897,
      "Array": 898,
      "url": 899,
      "Ġ!==": 900,
      "label": 901,
      "tot": 902,
      "ader": 903,
      "terfa": 904,
      "red": 905,
      "loc": 906,
      "lection": 907,
      "Ġassert": 908,
      "node": 909,
      "Ġ'./": 910,
      "../../": 911,
      "lick": 912,
      "Lin": 913,
      "create": 914,
      "query": 915,
      "Component": 916,
      "Options": 917,
      "Ġresult": 918,
      "Ġ==": 919,
      "ĠW": 920,
      "ypes": 921,
      "Ġfile": 922,
      "Ġval": 923,
      "Ġstyle": 924,
      "OR": 925,
      "terface": 926,
      "options": 927,
      "Input": 928,
      "Ġobject": 929,
      "Ġasync": 930,
      "((": 931,
      "thod": 932,
      "Ġen": 933,
      "lete": 934,
      "rivate": 935,
      "update": 936,
      "ont": 937,
      "ib": 938,
      "Ġext": 939,
      "props": 940,
      "ush": 941,
      "Ġì": 942,
      "bj": 943,
      "Ġal": 944,
      "of": 945,
      "Config": 946,
      "TE": 947,
      "essage": 948,
      "Class": 949,
      "IN": 950,
      "ĠclassName": 951,
      "ues": 952,
      "He": 953,
      "Ġl": 954,
      "]);": 955,
      "Be": 956,
      "Ġro": 957,
      "action": 958,
      "ded": 959,
      "sub": 960,
      "heck": 961,
      "Ġthat": 962,
      "Form": 963,
      "style": 964,
      "pec": 965,
      "ask": 966,
      "mit": 967,
      "indow": 968,
      "trib": 969,
      "rc": 970,
      "Path": 971,
      "ify": 972,
      "sion": 973,
      "Qu": 974,
      "Ġx": 975,
      "Index": 976,
      "Equal": 977,
      "osition": 978,
      "rap": 979,
      "View": 980,
      "Ġar": 981,
      "message": 982,
      "totype": 983,
      "Ġvoid": 984,
      "lace": 985,
      "min": 986,
      "Style": 987,
      "io": 988,
      "ĠĠĠĠĠĠĠĠĠĠĠĠĠĠĠĠĠ": 989,
      "cl": 990,
      "default": 991,
      "Ġ5": 992,
      "ary": 993,
      "Ġconsole": 994,
      "Al": 995,
      "ick": 996,
      "apper": 997,
      "html": 998,
      "scri": 999,
      "Ġtext": 1000,
      "ger": 1001,
      "push": 1002,
      "Message": 1003,
      "Ġpublic": 1004,
      "ep": 1005,
      "At": 1006,
      "().": 1007,
      "Content": 1008,
      "ider": 1009,
      "mb": 1010,
      "\")": 1011,
      "Ġpath": 1012,
      "Change": 1013,
      ">;": 1014,
      "ID": 1015,
      "oint": 1016,
      "Context": 1017,
      "ME": 1018,
      "ting": 1019,
      "uc": 1020,
      "Set": 1021,
      "Color": 1022,
      "stance": 1023,
      "========": 1024,
      "75": 1025,
      "item": 1026,
      "amp": 1027,
      "ook": 1028,
      "px": 1029,
      "Ġboolean": 1030,
      "ast": 1031,
      "new": 1032,
      "module": 1033,
      "Ġcreate": 1034,
      "Tr": 1035,
      "25": 1036,
      "Result": 1037,
      "Ġarg": 1038,
      "ces": 1039,
      "erver": 1040,
      "ersion": 1041,
      "On": 1042,
      "ense": 1043,
      "andle": 1044,
      "Ġcase": 1045,
      "LE": 1046,
      "component": 1047,
      "ruct": 1048,
      "Ġmessage": 1049,
      "event": 1050,
      "Ġat": 1051,
      "path": 1052,
      "18": 1053,
      "pi": 1054,
      "lected": 1055,
      "uff": 1056,
      "RE": 1057,
      "rapper": 1058,
      "Ġ6": 1059,
      "config": 1060,
      "])": 1061,
      "height": 1062,
      "umn": 1063,
      "prototype": 1064,
      "An": 1065,
      "for": 1066,
      "ound": 1067,
      "rl": 1068,
      "ustom": 1069,
      "read": 1070,
      "User": 1071,
      "Ġk": 1072,
      "App": 1073,
      "ner": 1074,
      "Group": 1075,
      "Ġ${": 1076,
      "not": 1077,
      "Code": 1078,
      "chem": 1079,
      "Ġcan": 1080,
      "atic": 1081,
      "ifi": 1082,
      "Props": 1083,
      "Ġuser": 1084,
      "reak": 1085,
      "RT": 1086,
      "Ġrequest": 1087,
      "(`": 1088,
      "}>": 1089,
      "ĠPromise": 1090,
      "lf": 1091,
      "ell": 1092,
      "lug": 1093,
      "ils": 1094,
      "view": 1095,
      "link": 1096,
      "Response": 1097,
      "Ġ\"â": 1098,
      "Val": 1099,
      "json": 1100,
      "ated": 1101,
      "isplay": 1102,
      "Ġ['": 1103,
      "https": 1104,
      "irst": 1105,
      "Size": 1106,
      "ree": 1107,
      "ends": 1108,
      "})": 1109,
      "JS": 1110,
      "ass": 1111,
      "19": 1112,
      "Field": 1113,
      "Ġapp": 1114,
      "lob": 1115,
      "201": 1116,
      "Of": 1117,
      "Ġstate": 1118,
      "Ġevent": 1119,
      "react": 1120,
      "Ġresponse": 1121,
      "color": 1122,
      "round": 1123,
      "span": 1124,
      "work": 1125,
      "lose": 1126,
      "Url": 1127,
      "Ġ'@": 1128,
      "arams": 1129,
      "Request": 1130,
      "Ġread": 1131,
      "Button": 1132,
      "(),": 1133,
      "ee": 1134,
      "tra": 1135,
      "order": 1136,
      "uild": 1137,
      "result": 1138,
      "Un": 1139,
      "class": 1140,
      "pre": 1141,
      "object": 1142,
      "rid": 1143,
      "With": 1144,
      "icon": 1145,
      "Ġcallback": 1146,
      "itor": 1147,
      "++": 1148,
      "ts": 1149,
      "Ġinterface": 1150,
      "image": 1151,
      "():": 1152,
      "Lay": 1153,
      "20": 1154,
      "Ġnode": 1155,
      "Container": 1156,
      "ations": 1157,
      "Ġtest": 1158,
      "equal": 1159,
      "isable": 1160,
      "Ġle": 1161,
      "olve": 1162,
      "sg": 1163,
      "/*": 1164,
      "ke": 1165,
      "current": 1166,
      "Ġby": 1167,
      "chema": 1168,
      "ommand": 1169,
      "ĉĉĉĉĉ": 1170,
      "ui": 1171,
      "mon": 1172,
      "emplate": 1173,
      "Info": 1174,
      "ĠReact": 1175,
      "SE": 1176,
      "Sh": 1177,
      "place": 1178,
      "cope": 1179,
      "Query": 1180,
      "Or": 1181,
      "Ġadd": 1182,
      "last": 1183,
      "TI": 1184,
      "Ġitem": 1185,
      "has": 1186,
      "ake": 1187,
      "11": 1188,
      "Module": 1189,
      "VRT": 1190,
      "VRTX": 1191,
      "pace": 1192,
      "64": 1193,
      "scription": 1194,
      "ache": 1195,
      "Map": 1196,
      "rag": 1197,
      "led": 1198,
      "content": 1199,
      "Lo": 1200,
      "enu": 1201,
      "cri": 1202,
      "client": 1203,
      "Ġthrow": 1204,
      "ther": 1205,
      "Ġ10": 1206,
      "status": 1207,
      "should": 1208,
      "ars": 1209,
      "lugin": 1210,
      "fer": 1211,
      "][": 1212,
      "start": 1213,
      "ateg": 1214,
      "ribe": 1215,
      "lector": 1216,
      "****************": 1217,
      "Ġ8": 1218,
      "oin": 1219,
      "Control": 1220,
      "}`": 1221,
      "Child": 1222,
      "ĠčĊ": 1223,
      "EN": 1224,
      "Model": 1225,
      "ST": 1226,
      "down": 1227,
      "ww": 1228,
      "ome": 1229,
      "UR": 1230,
      "ence": 1231,
      "Ġconfig": 1232,
      "ĠĠĠĠĠĠĠĠĠĠĠĠĠĠĠĠĠĠĠĠĠĠĠĠĠĠĠĠĠĠĠ": 1233,
      "base": 1234,
      "enter": 1235,
      "Le": 1236,
      "che": 1237,
      "Link": 1238,
      "lat": 1239,
      "pan": 1240,
      "next": 1241,
      "src": 1242,
      "ie": 1243,
      "ia": 1244,
      "cur": 1245,
      "Ġac": 1246,
      "time": 1247,
      "ML": 1248,
      "Ġdocument": 1249,
      "ific": 1250,
      "response": 1251,
      "input": 1252,
      "over": 1253,
      "Ġare": 1254,
      "Prov": 1255,
      "uffer": 1256,
      "cale": 1257,
      "te": 1258,
      "Number": 1259,
      "ground": 1260,
      "true": 1261,
      "uration": 1262,
      "word": 1263,
      "Trans": 1264,
      "ĠV": 1265,
      "000": 1266,
      "ctive": 1267,
      "pen": 1268,
      "ere": 1269,
      "Test": 1270,
      "body": 1271,
      "ĠIn": 1272,
      "ou": 1273,
      "([": 1274,
      "15": 1275,
      "ĠError": 1276,
      "16": 1277,
      "Exp": 1278,
      "NA": 1279,
      "Ġë": 1280,
      "ox": 1281,
      "number": 1282,
      "\").": 1283,
      "Ġcomp": 1284,
      "Ġz": 1285,
      "trans": 1286,
      "Page": 1287,
      "99": 1288,
      "pack": 1289,
      "valid": 1290,
      "Wrapper": 1291,
      "Width": 1292,
      "Ġcolor": 1293,
      "only": 1294,
      "ty": 1295,
      "Ġarray": 1296,
      "Ġextends": 1297,
      "Up": 1298,
      "Ġ...": 1299,
      "Ġtrans": 1300,
      "ne": 1301,
      "box": 1302,
      "Mo": 1303,
      "32": 1304,
      "ameter": 1305,
      "gle": 1306,
      "Ġindex": 1307,
      "scribe": 1308,
      "88": 1309,
      "ample": 1310,
      "cre": 1311,
      "ĉĠ": 1312,
      "ffset": 1313,
      "////////": 1314,
      "[]": 1315,
      "Ed": 1316,
      "uage": 1317,
      "ension": 1318,
      "anguage": 1319,
      "tings": 1320,
      "Ġlog": 1321,
      "find": 1322,
      "Ġlabel": 1323,
      "raph": 1324,
      "rite": 1325,
      "Date": 1326,
      "core": 1327,
      ";\":": 1328,
      "Add": 1329,
      "40": 1330,
      "width": 1331,
      "Ġmax": 1332,
      "Ġprivate": 1333,
      "Arg": 1334,
      "bs": 1335,
      "uto": 1336,
      "']": 1337,
      "web": 1338,
      "remove": 1339,
      "tern": 1340,
      "ĉĠĠĠ": 1341,
      "Ġ_.": 1342,
      "page": 1343,
      "right": 1344,
      "Ġ'../": 1345,
      "tribute": 1346,
      "bar": 1347,
      "(()": 1348,
      ".$": 1349,
      "Ġelement": 1350,
      "ructor": 1351,
      "Ġcurrent": 1352,
      "TML": 1353,
      "andler": 1354,
      "Property": 1355,
      "Ġstart": 1356,
      "Ġparse": 1357,
      "Ref": 1358,
      "Th": 1359,
      "Types": 1360,
      "90": 1361,
      "cord": 1362,
      "arameter": 1363,
      "JSON": 1364,
      "toBe": 1365,
      "uccess": 1366,
      "Count": 1367,
      "fore": 1368,
      "ible": 1369,
      "Row": 1370,
      "Ġmethod": 1371,
      "nder": 1372,
      "ph": 1373,
      "be": 1374,
      "SS": 1375,
      "target": 1376,
      "MA": 1377,
      "Table": 1378,
      "Out": 1379,
      "Ġall": 1380,
      "ok": 1381,
      "rict": 1382,
      "gist": 1383,
      "Sub": 1384,
      "Tab": 1385,
      "Ġlist": 1386,
      "ates": 1387,
      "ments": 1388,
      "Point": 1389,
      "arent": 1390,
      "Ġtitle": 1391,
      "Ġrender": 1392,
      "api": 1393,
      "Start": 1394,
      "Ġself": 1395,
      "ular": 1396,
      "ann": 1397,
      "odal": 1398,
      "filter": 1399,
      "Ġout": 1400,
      "are": 1401,
      "Ġmo": 1402,
      "ĠLo": 1403,
      "Ġ[];": 1404,
      "Status": 1405,
      "title": 1406,
      "button": 1407,
      "Token": 1408,
      "head": 1409,
      "cond": 1410,
      "pts": 1411,
      "entity": 1412,
      "abel": 1413,
      "Ġform": 1414,
      "Ġ20": 1415,
      "rame": 1416,
      "NAME": 1417,
      "cle": 1418,
      "see": 1419,
      "then": 1420,
      "top": 1421,
      "All": 1422,
      "sed": 1423,
      "itial": 1424,
      "child": 1425,
      "IT": 1426,
      "parent": 1427,
      "Ġcheck": 1428,
      "element": 1429,
      "30": 1430,
      "Ġcomponent": 1431,
      "78": 1432,
      "Man": 1433,
      "Ġ]": 1434,
      "Ġurl": 1435,
      "For": 1436,
      "Action": 1437,
      "check": 1438,
      "local": 1439,
      "Ac": 1440,
      "point": 1441,
      "Ġbreak": 1442,
      "layer": 1443,
      "fter": 1444,
      "email": 1445,
      "Ġspec": 1446,
      "exports": 1447,
      "*/": 1448,
      "Ġcontent": 1449,
      "ä¸": 1450,
      "Ġinput": 1451,
      "65": 1452,
      ">(": 1453,
      "Icon": 1454,
      "Tag": 1455,
      "Ġupdate": 1456,
      "render": 1457,
      "Ġcode": 1458,
      "icense": 1459,
      "ual": 1460,
      "ude": 1461,
      "raw": 1462,
      "toEqual": 1463,
      "Ġhas": 1464,
      "roll": 1465,
      "Ġwidth": 1466,
      "lobal": 1467,
      "Ġfield": 1468,
      "request": 1469,
      "ine": 1470,
      "ĠObject": 1471,
      "Each": 1472,
      "Ġ],": 1473,
      "ong": 1474,
      "Click": 1475,
      "cket": 1476,
      "ĠMath": 1477,
      "show": 1478,
      "annel": 1479,
      "ale": 1480,
      "scope": 1481,
      "ud": 1482,
      "roperties": 1483,
      "Ġwe": 1484,
      "14": 1485,
      "Dash": 1486,
      "parse": 1487,
      "ĠAr": 1488,
      "gh": 1489,
      "Ġtarget": 1490,
      "Ġmap": 1491,
      "space": 1492,
      "Height": 1493,
      "require": 1494,
      "Ġtime": 1495,
      "--------------------------------": 1496,
      "uthor": 1497,
      "79": 1498,
      "lex": 1499,
      "css": 1500,
      "arn": 1501,
      "Ġwhen": 1502,
      "ager": 1503,
      "utes": 1504,
      "='": 1505,
      "fn": 1506,
      "80": 1507,
      "Ġpre": 1508,
      "unc": 1509,
      "click": 1510,
      "'),": 1511,
      "Ġquery": 1512,
      "nect": 1513,
      "The": 1514,
      "34": 1515,
      "uter": 1516,
      "ĠĠĠĠĠĠ": 1517,
      "older": 1518,
      "idd": 1519,
      "Provider": 1520,
      "ative": 1521,
      "Ġper": 1522,
      "AL": 1523,
      "PI": 1524,
      "cript": 1525,
      "alc": 1526,
      "false": 1527,
      "vel": 1528,
      "ics": 1529,
      "ìĿ": 1530,
      "wit": 1531,
      "ĠTh": 1532,
      "vert": 1533,
      "Des": 1534,
      "Ġdo": 1535,
      "str": 1536,
      "model": 1537,
      "obj": 1538,
      "50": 1539,
      "Ġ/*": 1540,
      "context": 1541,
      "pos": 1542,
      "fe": 1543,
      "replace": 1544,
      "Ġsub": 1545,
      "Ġend": 1546,
      "anel": 1547,
      "Ġshould": 1548,
      "Ġoff": 1549,
      "licit": 1550,
      "rowser": 1551,
      "Ġwill": 1552,
      "Ġreadonly": 1553,
      "DE": 1554,
      ">,": 1555,
      "Block": 1556,
      "24": 1557,
      "lib": 1558,
      "anc": 1559,
      "max": 1560,
      "End": 1561,
      "ctx": 1562,
      "'],": 1563,
      "Len": 1564,
      "vide": 1565,
      "ĠĠĠĠĠĠĠĠĠĠĠĠĠĠĠĠĠĠĠĠĠ": 1566,
      "post": 1567,
      "Loc": 1568,
      "duct": 1569,
      "60": 1570,
      "old": 1571,
      "Log": 1572,
      "etch": 1573,
      "property": 1574,
      "Column": 1575,
      "Body": 1576,
      "Valid": 1577,
      "try": 1578,
      "Ġ38": 1579,
      "nection": 1580,
      "Im": 1581,
      "Ġload": 1582,
      "erial": 1583,
      "left": 1584,
      "Ġvalid": 1585,
      "Ro": 1586,
      "ĠLicense": 1587,
      "Not": 1588,
      "ish": 1589,
      "Ġvalues": 1590,
      "\"]": 1591,
      "filename": 1592,
      "As": 1593,
      "13": 1594,
      "Ġclient": 1595,
      "alled": 1596,
      "Ġprops": 1597,
      "doc": 1598,
      "any": 1599,
      "the": 1600,
      "Ġno": 1601,
      "ĠLoDash": 1602,
      "tom": 1603,
      "Ġsource": 1604,
      "rect": 1605,
      "send": 1606,
      "[\"": 1607,
      "ategory": 1608,
      "returns": 1609,
      "net": 1610,
      "exec": 1611,
      "uster": 1612,
      "components": 1613,
      "AC": 1614,
      "vue": 1615,
      "Command": 1616,
      "mis": 1617,
      "uments": 1618,
      "join": 1619,
      "tract": 1620,
      "`,": 1621,
      "ĠDate": 1622,
      "Client": 1623,
      "ĠY": 1624,
      "Box": 1625,
      "Ġ'../../": 1626,
      "Ġstatic": 1627,
      "resolve": 1628,
      "($": 1629,
      "search": 1630,
      "alcul": 1631,
      "From": 1632,
      "private": 1633,
      "ymb": 1634,
      "Ġ{};": 1635,
      "('.": 1636,
      "ymbol": 1637,
      "Callback": 1638,
      "wn": 1639,
      "Ġsup": 1640,
      "Ġq": 1641,
      "call": 1642,
      "bug": 1643,
      "Filter": 1644,
      "mark": 1645,
      "Label": 1646,
      "pg": 1647,
      "Ġ19": 1648,
      "location": 1649,
      "Default": 1650,
      "70": 1651,
      "utils": 1652,
      "Grid": 1653,
      "Layout": 1654,
      "entry": 1655,
      "++)": 1656,
      "fir": 1657,
      "33": 1658,
      "URL": 1659,
      "typeof": 1660,
      "());": 1661,
      "ocus": 1662,
      "we": 1663,
      "AR": 1664,
      "size": 1665,
      "ialog": 1666,
      "lan": 1667,
      "UT": 1668,
      "witch": 1669,
      "29": 1670,
      "HTML": 1671,
      "Ġheight": 1672,
      "tt": 1673,
      "Ġargs": 1674,
      "Match": 1675,
      "args": 1676,
      "clude": 1677,
      "Ġiter": 1678,
      "ses": 1679,
      "================": 1680,
      "AT": 1681,
      "Ġ9": 1682,
      "ified": 1683,
      "lit": 1684,
      "Params": 1685,
      "Ġmin": 1686,
      "group": 1687,
      "isible": 1688,
      "ĠArray": 1689,
      "ys": 1690,
      "cla": 1691,
      "Ġback": 1692,
      "Rout": 1693,
      "Ġ__": 1694,
      "jpg": 1695,
      "rim": 1696,
      "Ġ\"./": 1697,
      "28": 1698,
      "Ġtry": 1699,
      "ich": 1700,
      "iable": 1701,
      "elp": 1702,
      "68": 1703,
      "Ġ\"<": 1704,
      "59": 1705,
      "ld": 1706,
      "press": 1707,
      "Ġ$(": 1708,
      "Ġpage": 1709,
      "(){": 1710,
      "header": 1711,
      "img": 1712,
      "opy": 1713,
      "argin": 1714,
      "](": 1715,
      "ĠĠčĊ": 1716,
      "Selection": 1717,
      "FF": 1718,
      "ical": 1719,
      "Ġproperty": 1720,
      "idget": 1721,
      "tn": 1722,
      "poname": 1723,
      "reponame": 1724,
      "gister": 1725,
      "Ġli": 1726,
      "ices": 1727,
      "ssion": 1728,
      "AN": 1729,
      "document": 1730,
      "edit": 1731,
      "17": 1732,
      "Ġchild": 1733,
      "null": 1734,
      "avig": 1735,
      "Ġcatch": 1736,
      "ĠThis": 1737,
      "active": 1738,
      "ai": 1739,
      "Ġlo": 1740,
      "expect": 1741,
      "cy": 1742,
      "TION": 1743,
      "disable": 1744,
      "orage": 1745,
      "ottom": 1746,
      "Mode": 1747,
      "Range": 1748,
      "Ġ7": 1749,
      "Int": 1750,
      "comm": 1751,
      "Ġcontext": 1752,
      "adding": 1753,
      "Comp": 1754,
      "select": 1755,
      "Cl": 1756,
      "handle": 1757,
      "OM": 1758,
      "ream": 1759,
      "stro": 1760,
      "66": 1761,
      "Ġconstructor": 1762,
      "Ġoffset": 1763,
      "assert": 1764,
      "cept": 1765,
      "field": 1766,
      "arameters": 1767,
      "append": 1768,
      "Top": 1769,
      "md": 1770,
      "window": 1771,
      "Ġnext": 1772,
      "Ġbase": 1773,
      "ï¼": 1774,
      ";\",": 1775,
      "token": 1776,
      "Ġhttp": 1777,
      "Ġcount": 1778,
      "omain": 1779,
      "Manager": 1780,
      "Ġinstance": 1781,
      "no": 1782,
      "ĠSt": 1783,
      "stars": 1784,
      "Ġposition": 1785,
      "Ġsize": 1786,
      "ature": 1787,
      "38": 1788,
      "Imp": 1789,
      "('#": 1790,
      "aw": 1791,
      "Ġshow": 1792,
      "inal": 1793,
      "Source": 1794,
      "Ġ'/": 1795,
      "55": 1796,
      "ender": 1797,
      "Ġhandle": 1798,
      "ading": 1799,
      "open": 1800,
      "Ġbody": 1801,
      "ĠJ": 1802,
      "types": 1803,
      "íķ": 1804,
      "ally": 1805,
      "store": 1806,
      "iter": 1807,
      "ispatch": 1808,
      "env": 1809,
      "Met": 1810,
      "gth": 1811,
      "refix": 1812,
      "39": 1813,
      "ob": 1814,
      "inter": 1815,
      "Ġparams": 1816,
      "array": 1817,
      "69": 1818,
      "}/": 1819,
      "Ġwindow": 1820,
      "lice": 1821,
      "22": 1822,
      "wh": 1823,
      "'s": 1824,
      "inner": 1825,
      "Line": 1826,
      "ote": 1827,
      "Ġso": 1828,
      "GE": 1829,
      "bind": 1830,
      "Det": 1831,
      "Menu": 1832,
      "Ġ[\"": 1833,
      "ized": 1834,
      "ms": 1835,
      "('/": 1836,
      "ĠK": 1837,
      "info": 1838,
      "ggle": 1839,
      "Ġup": 1840,
      "Instance": 1841,
      "Selector": 1842,
      "angular": 1843,
      "Attribute": 1844,
      "selected": 1845,
      "Check": 1846,
      "lint": 1847,
      "Listener": 1848,
      "Ġaction": 1849,
      "Ġprocess": 1850,
      "ptional": 1851,
      "firm": 1852,
      "à¸": 1853,
      "Ġtoken": 1854,
      "source": 1855,
      "delete": 1856,
      "py": 1857,
      "And": 1858,
      "ĠCon": 1859,
      "Ġu": 1860,
      "Ġhave": 1861,
      "table": 1862,
      "Handler": 1863,
      "Ġexport": 1864,
      "ById": 1865,
      "Function": 1866,
      "Panel": 1867,
      "mission": 1868,
      "ultip": 1869,
      "ifier": 1870,
      "uch": 1871,
      "Length": 1872,
      "Image": 1873,
      "its": 1874,
      "}</": 1875,
      "Ġchange": 1876,
      "common": 1877,
      "Search": 1878,
      "())": 1879,
      "Ġ):": 1880,
      "attr": 1881,
      "Per": 1882,
      "change": 1883,
      "uil": 1884,
      "Ġ#": 1885,
      "0000": 1886,
      "Ġyou": 1887,
      "(!": 1888,
      "tag": 1889,
      "ĠIf": 1890,
      "from": 1891,
      "ĠApp": 1892,
      "mount": 1893,
      "lication": 1894,
      "(_": 1895,
      "Ġ({": 1896,
      "Base": 1897,
      "toString": 1898,
      "Ġus": 1899,
      "router": 1900,
      "www": 1901,
      "(/": 1902,
      "styles": 1903,
      "44": 1904,
      "Keys": 1905,
      "Open": 1906,
      "Update": 1907,
      "Ġview": 1908,
      "igh": 1909,
      "container": 1910,
      "Ġ!=": 1911,
      "ions": 1912,
      "control": 1913,
      "Ġline": 1914,
      "mpty": 1915,
      "Sc": 1916,
      "Ġdisplay": 1917,
      "Ut": 1918,
      "block": 1919,
      "ĠJSON": 1920,
      "resh": 1921,
      "lable": 1922,
      "Cell": 1923,
      "sm": 1924,
      "board": 1925,
      "td": 1926,
      "oom": 1927,
      "sert": 1928,
      "ĠEx": 1929,
      "Ġ15": 1930,
      "ĉĉĉĉĉĉ": 1931,
      "public": 1932,
      "Ġmark": 1933,
      "loader": 1934,
      "?.": 1935,
      "elper": 1936,
      "vas": 1937,
      "Ġ{},": 1938,
      "igger": 1939,
      "Position": 1940,
      "\\\\": 1941,
      "Ġ18": 1942,
      "Case": 1943,
      "ĠReturn": 1944,
      "ification": 1945,
      "eed": 1946,
      "req": 1947,
      "ures": 1948,
      "adata": 1949,
      "headers": 1950,
      "Title": 1951,
      "abled": 1952,
      "Ġover": 1953,
      "26": 1954,
      "AB": 1955,
      "params": 1956,
      "arser": 1957,
      "ene": 1958,
      "Ġrow": 1959,
      "IC": 1960,
      "Ġpv": 1961,
      "loat": 1962,
      "US": 1963,
      "ĠDe": 1964,
      "Db": 1965,
      "display": 1966,
      "webpack": 1967,
      "forEach": 1968,
      "Ġwhich": 1969,
      "ats": 1970,
      "by": 1971,
      "close": 1972,
      "OD": 1973,
      "Scale": 1974,
      "sor": 1975,
      "sing": 1976,
      "Ġimp": 1977,
      "font": 1978,
      "ffect": 1979,
      "Ġorder": 1980,
      "dir": 1981,
      "Ġsc": 1982,
      "match": 1983,
      "Me": 1984,
      "Ġ100": 1985,
      "`);": 1986,
      ";;": 1987,
      "Document": 1988,
      "Ġfont": 1989,
      "ĠSet": 1990,
      "Ġused": 1991,
      "assword": 1992,
      "Left": 1993,
      "modules": 1994,
      "35": 1995,
      "AD": 1996,
      "SI": 1997,
      "adi": 1998,
      "Promise": 1999,
      "67": 2000,
      "Ġlast": 2001,
      "Ġtypeof": 2002,
      "ĠID": 2003,
      "Sync": 2004,
      "write": 2005,
      "100": 2006,
      "ool": 2007,
      "nd": 2008,
      "void": 2009,
      "={{": 2010,
      "OL": 2011,
      "çļ": 2012,
      "boolean": 2013,
      "ĠĠĠĠĠĠĠĠĠĠĠĠĠĠĠĠĠĠĠĠĠĠĠĠĠĠĠĠĠĠĠĠĠĠĠ": 2014,
      "Dir": 2015,
      "oApp": 2016,
      "Ġfirst": 2017,
      "Ġmodule": 2018,
      "Offset": 2019,
      "Ġ$(\"": 2020,
      "pr": 2021,
      "Ġbefore": 2022,
      "çļĦ": 2023,
      "ume": 2024,
      "Ġ{}": 2025,
      "Ġ'<": 2026,
      "Ġobj": 2027,
      "><": 2028,
      ">\",": 2029,
      "Ġpoint": 2030,
      "ings": 2031,
      "async": 2032,
      "></": 2033,
      "Ġ}),": 2034,
      "idden": 2035,
      "\"),": 2036,
      "irect": 2037,
      "fs": 2038,
      "tin": 2039,
      "unk": 2040,
      "pol": 2041,
      "Ġresource": 2042,
      "schema": 2043,
      "lease": 2044,
      "Ġfilter": 2045,
      "Address": 2046,
      "Bar": 2047,
      "Version": 2048,
      "Layer": 2049,
      "Ġmodel": 2050,
      "ped": 2051,
      "Ġdelete": 2052,
      "process": 2053,
      "NT": 2054,
      "pac": 2055,
      "New": 2056,
      "service": 2057,
      "console": 2058,
      "cor": 2059,
      "offset": 2060,
      "ormal": 2061,
      "bserv": 2062,
      "ING": 2063,
      "Obj": 2064,
      "mat": 2065,
      "ql": 2066,
      "Ġ12": 2067,
      "center": 2068,
      "Part": 2069,
      "vg": 2070,
      "olv": 2071,
      "first": 2072,
      "Ġcur": 2073,
      "ommon": 2074,
      "iven": 2075,
      "Ġroot": 2076,
      "mer": 2077,
      "49": 2078,
      "ĠGet": 2079,
      "Ġblock": 2080,
      "editor": 2081,
      "nap": 2082,
      "ries": 2083,
      "root": 2084,
      "ĠCh": 2085,
      "Ġgroup": 2086,
      "RO": 2087,
      "Header": 2088,
      "Ġunder": 2089,
      "Schema": 2090,
      "ìĹ": 2091,
      "Ġreq": 2092,
      "project": 2093,
      "Ġpay": 2094,
      "Ġaccount": 2095,
      "Ġformat": 2096,
      "main": 2097,
      "********************************": 2098,
      "db": 2099,
      "Ġonly": 2100,
      "ES": 2101,
      "Pos": 2102,
      "Ġstore": 2103,
      "lot": 2104,
      "TED": 2105,
      "flow": 2106,
      "getElement": 2107,
      "Ġtop": 2108,
      "aded": 2109,
      "else": 2110,
      "Ġmatch": 2111,
      "ources": 2112,
      "Ġpart": 2113,
      "custom": 2114,
      "ĠReturns": 2115,
      "light": 2116,
      "ility": 2117,
      "Ġdefin": 2118,
      "åı": 2119,
      "izer": 2120,
      "Dialog": 2121,
      "ape": 2122,
      "Ġstatus": 2123,
      "images": 2124,
      "part": 2125,
      "ĉĉččĊ": 2126,
      "gra": 2127,
      "tributes": 2128,
      "gress": 2129,
      "Store": 2130,
      "await": 2131,
      "ware": 2132,
      "Di": 2133,
      "Cluster": 2134,
      "az": 2135,
      "Ġ\"#": 2136,
      "Ġ>=": 2137,
      "Ġimport": 2138,
      "Ġemail": 2139,
      "Settings": 2140,
      "ched": 2141,
      "alculator": 2142,
      "Mat": 2143,
      "task": 2144,
      "Format": 2145,
      "Task": 2146,
      "undefined": 2147,
      "Ġwork": 2148,
      "Edit": 2149,
      "Is": 2150,
      "Web": 2151,
      "build": 2152,
      "Resource": 2153,
      "77": 2154,
      "mail": 2155,
      "ĠList": 2156,
      "Select": 2157,
      "Timeout": 2158,
      "version": 2159,
      "org": 2160,
      "Ġinitial": 2161,
      "[];": 2162,
      "CH": 2163,
      "Ġ'',": 2164,
      "icker": 2165,
      "////////////////": 2166,
      "Right": 2167,
      "Ġresolve": 2168,
      "Mark": 2169,
      "Parent": 2170,
      "eslint": 2171,
      "Detail": 2172,
      "gre": 2173,
      "Ġmust": 2174,
      "graph": 2175,
      "Ġparent": 2176,
      "tip": 2177,
      "uted": 2178,
      "auth": 2179,
      "Ġborder": 2180,
      "les": 2181,
      "ps": 2182,
      "pend": 2183,
      "plugin": 2184,
      "ĠString": 2185,
      "Ġbutton": 2186,
      "45": 2187,
      "ization": 2188,
      "Ġselected": 2189,
      "als": 2190,
      "imation": 2191,
      "format": 2192,
      "gr": 2193,
      "sign": 2194,
      "Ġsm": 2195,
      "Ġmake": 2196,
      "shot": 2197,
      "Output": 2198,
      "'t": 2199,
      "Ġmargin": 2200,
      "keys": 2201,
      "Ġrequired": 2202,
      "23": 2203,
      "position": 2204,
      "Get": 2205,
      "Ġrun": 2206,
      "Work": 2207,
      "Ġ[],": 2208,
      "cent": 2209,
      "Ġdescription": 2210,
      "Language": 2211,
      "server": 2212,
      "Ġtag": 2213,
      "Args": 2214,
      "resent": 2215,
      "ucket": 2216,
      "Controller": 2217,
      "Ġcall": 2218,
      "Ġoutput": 2219,
      "ĠĠĠĠĠĠĠĠĠĠĠĠ": 2220,
      "etwork": 2221,
      "'));": 2222,
      "vice": 2223,
      "ĠPro": 2224,
      "Ġexist": 2225,
      "IL": 2226,
      "resource": 2227,
      "Ġprovide": 2228,
      "uid": 2229,
      "Ġ}}": 2230,
      "Ġad": 2231,
      "Ext": 2232,
      "split": 2233,
      "Active": 2234,
      "atab": 2235,
      "indexOf": 2236,
      "iled": 2237,
      "Ġ%": 2238,
      "tool": 2239,
      "children": 2240,
      "LA": 2241,
      "ingle": 2242,
      "Ġright": 2243,
      "27": 2244,
      "Template": 2245,
      "Ġicon": 2246,
      "Ġref": 2247,
      "Ġserver": 2248,
      "mov": 2249,
      "Ġbackground": 2250,
      "ED": 2251,
      "sup": 2252,
      "method": 2253,
      "ling": 2254,
      "attern": 2255,
      "Ġcustom": 2256,
      "Ġversion": 2257,
      "sets": 2258,
      "ropTypes": 2259,
      "21": 2260,
      "Ġother": 2261,
      "ttp": 2262,
      "Ġdescribe": 2263,
      "Window": 2264,
      "lem": 2265,
      "iff": 2266,
      "Ent": 2267,
      "Order": 2268,
      "napshot": 2269,
      "Buffer": 2270,
      "atabase": 2271,
      "sol": 2272,
      "Ġmay": 2273,
      "ternal": 2274,
      "625": 2275,
      "foo": 2276,
      "iod": 2277,
      "description": 2278,
      "Ġ\"../": 2279,
      "Ġopts": 2280,
      "bservable": 2281,
      "Fact": 2282,
      "isabled": 2283,
      "Ġ\"`": 2284,
      "_.": 2285,
      "Ġinst": 2286,
      "Sign": 2287,
      "with": 2288,
      "stringify": 2289,
      "Close": 2290,
      "Render": 2291,
      "rit": 2292,
      "Ġdate": 2293,
      "ported": 2294,
      "ision": 2295,
      "`\"": 2296,
      "command": 2297,
      "43": 2298,
      "89": 2299,
      "Ġone": 2300,
      "ĉččĊ": 2301,
      "Ġí": 2302,
      "Ġreject": 2303,
      "åĪ": 2304,
      "rictEqual": 2305,
      "init": 2306,
      "toH": 2307,
      "uilder": 2308,
      "done": 2309,
      "Target": 2310,
      "Ġarguments": 2311,
      "`;": 2312,
      "Tool": 2313,
      "Ġ`${": 2314,
      "Ġsearch": 2315,
      "account": 2316,
      "mber": 2317,
      "Modal": 2318,
      "sort": 2319,
      "Inter": 2320,
      "lag": 2321,
      "omb": 2322,
      "istory": 2323,
      "Fn": 2324,
      "LO": 2325,
      "apply": 2326,
      "br": 2327,
      "Ġhref": 2328,
      "ithub": 2329,
      ")}": 2330,
      "Auth": 2331,
      "Ġpost": 2332,
      "self": 2333,
      "ious": 2334,
      "Ġlocal": 2335,
      "Ġ'#": 2336,
      "ê°": 2337,
      "Custom": 2338,
      "emb": 2339,
      "]:": 2340,
      "ready": 2341,
      "IR": 2342,
      "Ġspecified": 2343,
      "my": 2344,
      "sk": 2345,
      "aster": 2346,
      "Back": 2347,
      "ient": 2348,
      "Ġremove": 2349,
      "Plugin": 2350,
      "Ġhttps": 2351,
      "Ġcontainer": 2352,
      "Ġ16": 2353,
      "latform": 2354,
      "output": 2355,
      "items": 2356,
      "rack": 2357,
      "ignore": 2358,
      "msg": 2359,
      "ower": 2360,
      ")).": 2361,
      "Ġ}).": 2362,
      "Create": 2363,
      "allet": 2364,
      "values": 2365,
      "fill": 2366,
      "Ġgener": 2367,
      "case": 2368,
      "sses": 2369,
      "channel": 2370,
      "Ġdone": 2371,
      "tact": 2372,
      "Que": 2373,
      "play": 2374,
      "UL": 2375,
      "option": 2376,
      "Ġlink": 2377,
      "Ġinit": 2378,
      "Ġsort": 2379,
      "Server": 2380,
      "do": 2381,
      "spec": 2382,
      "ution": 2383,
      "Ġstrict": 2384,
      "Ġ''": 2385,
      "quence": 2386,
      "range": 2387,
      "license": 2388,
      "37": 2389,
      "Ġafter": 2390,
      "48": 2391,
      "OT": 2392,
      "vs": 2393,
      "Ġqu": 2394,
      "Ġdist": 2395,
      "side": 2396,
      "Js": 2397,
      "cd": 2398,
      "Own": 2399,
      "iron": 2400,
      "Ġgiven": 2401,
      "Min": 2402,
      "chart": 2403,
      "()).": 2404,
      "ï¼Į": 2405,
      "Ġcommand": 2406,
      "posit": 2407,
      "loy": 2408,
      "Last": 2409,
      "ern": 2410,
      "Ġglobal": 2411,
      "Ġsrc": 2412,
      "layout": 2413,
      "Defin": 2414,
      "Ġcl": 2415,
      "Iter": 2416,
      "Ġerr": 2417,
      "ift": 2418,
      "Ġopen": 2419,
      "rypt": 2420,
      "getElementById": 2421,
      "toHave": 2422,
      "gment": 2423,
      "tect": 2424,
      "sw": 2425,
      "Items": 2426,
      "yst": 2427,
      "lash": 2428,
      "umer": 2429,
      "ll": 2430,
      "Ġtemplate": 2431,
      "Account": 2432,
      "callback": 2433,
      "Values": 2434,
      "Rule": 2435,
      "medi": 2436,
      "Selected": 2437,
      "udi": 2438,
      "util": 2439,
      "ared": 2440,
      "ĠonChange": 2441,
      "theme": 2442,
      "Card": 2443,
      "actions": 2444,
      "Ġproperties": 2445,
      "Ġapi": 2446,
      "upload": 2447,
      "ĠĠĠĠĠĠĠĠĠĠĠĠĠĠĠĠĠĠĠĠĠĠĠĠĠ": 2448,
      "Ġ\"@": 2449,
      "##": 2450,
      "run": 2451,
      "vo": 2452,
      "aws": 2453,
      "Ġtheme": 2454,
      "Ġproject": 2455,
      "Ġpayload": 2456,
      "aj": 2457,
      "ircle": 2458,
      "Tree": 2459,
      "ĠCreate": 2460,
      "Ġmeta": 2461,
      "Ġimplement": 2462,
      "ystem": 2463,
      "cat": 2464,
      "hide": 2465,
      "Pre": 2466,
      "TS": 2467,
      "icate": 2468,
      "chor": 2469,
      "vious": 2470,
      "enc": 2471,
      "arr": 2472,
      "session": 2473,
      "Ġ$('#": 2474,
      ">{": 2475,
      "Ġlength": 2476,
      "Ġpadding": 2477,
      "edge": 2478,
      "Ġservice": 2479,
      "register": 2480,
      "alog": 2481,
      "lear": 2482,
      "ities": 2483,
      "Ġ'';": 2484,
      "36": 2485,
      "Ġ[{": 2486,
      "Configuration": 2487,
      "Theme": 2488,
      "anvas": 2489,
      "ĠDoc": 2490,
      "ias": 2491,
      "ants": 2492,
      "ference": 2493,
      "ector": 2494,
      "ĠUser": 2495,
      "template": 2496,
      "Method": 2497,
      "Entry": 2498,
      "Ġactive": 2499,
      "lap": 2500,
      "'))": 2501,
      "very": 2502,
      "Span": 2503,
      "\"],": 2504,
      "mw": 2505,
      "ential": 2506,
      "('./": 2507,
      "indo": 2508,
      "Editor": 2509,
      "success": 2510,
      "alk": 2511,
      "Ġfiles": 2512,
      "mouse": 2513,
      "cret": 2514,
      "tes": 2515,
      "andom": 2516,
      "catch": 2517,
      "ĠSe": 2518,
      "rimary": 2519,
      "chedule": 2520,
      "func": 2521,
      "Ġ\\": 2522,
      "Ġcache": 2523,
      "adius": 2524,
      "Ġdoc": 2525,
      "mock": 2526,
      "Ġexpected": 2527,
      "Ġrange": 2528,
      "09": 2529,
      "Ad": 2530,
      "Nodes": 2531,
      "ique": 2532,
      "tx": 2533,
      "oot": 2534,
      "peration": 2535,
      "pipe": 2536,
      "Ġentry": 2537,
      "Ġfind": 2538,
      "github": 2539,
      "Over": 2540,
      "serial": 2541,
      "Ġleft": 2542,
      "nav": 2543,
      "entifier": 2544,
      "Ġ[]": 2545,
      "31": 2546,
      "Are": 2547,
      "ATE": 2548,
      "pay": 2549,
      "Ġwhile": 2550,
      "game": 2551,
      "holder": 2552,
      "AS": 2553,
      "Wh": 2554,
      "Ġtransform": 2555,
      "Msg": 2556,
      "man": 2557,
      "wo": 2558,
      "DI": 2559,
      "Ġla": 2560,
      "include": 2561,
      "direct": 2562,
      "gener": 2563,
      "pass": 2564,
      "Mod": 2565,
      "ession": 2566,
      "ancel": 2567,
      "Auto": 2568,
      "TY": 2569,
      "ories": 2570,
      "No": 2571,
      "nown": 2572,
      "temp": 2573,
      "Ġfs": 2574,
      "Storage": 2575,
      "03": 2576,
      "200": 2577,
      "MP": 2578,
      "lur": 2579,
      "pv": 2580,
      "ux": 2581,
      "Ġpr": 2582,
      "lip": 2583,
      "elpers": 2584,
      "Ġitems": 2585,
      "Ġ14": 2586,
      "af": 2587,
      "Var": 2588,
      "otal": 2589,
      "address": 2590,
      "xis": 2591,
      "Ġfound": 2592,
      "Ġact": 2593,
      "Email": 2594,
      "oId": 2595,
      "eries": 2596,
      ".__": 2597,
      "gb": 2598,
      "Ġentity": 2599,
      "Ġfix": 2600,
      "udio": 2601,
      "host": 2602,
      "author": 2603,
      "each": 2604,
      "stop": 2605,
      "tach": 2606,
      "cc": 2607,
      "ä»": 2608,
      "Ġreturns": 2609,
      "atar": 2610,
      "ĠComponent": 2611,
      "olume": 2612,
      "Ġexec": 2613,
      "ĠDocDb": 2614,
      "lish": 2615,
      "Down": 2616,
      "tab": 2617,
      "meta": 2618,
      "Ġass": 2619,
      "Utils": 2620,
      "ier": 2621,
      "ailable": 2622,
      "loud": 2623,
      "gin": 2624,
      "Ġcor": 2625,
      "Ġswitch": 2626,
      "Math": 2627,
      "Ġcontrol": 2628,
      "Ġmod": 2629,
      "ĠUR": 2630,
      "ironment": 2631,
      "Mon": 2632,
      "TH": 2633,
      "pository": 2634,
      "ĠonClick": 2635,
      "Explicit": 2636,
      "KE": 2637,
      "gments": 2638,
      "Pa": 2639,
      "slice": 2640,
      "aders": 2641,
      "files": 2642,
      "58": 2643,
      "CE": 2644,
      "ynam": 2645,
      "GroupName": 2646,
      "Ġmat": 2647,
      "ators": 2648,
      "Ġcollection": 2649,
      "lider": 2650,
      "ĠUn": 2651,
      "Root": 2652,
      "modal": 2653,
      "ning": 2654,
      "Ġ,": 2655,
      "queue": 2656,
      "auto": 2657,
      "Current": 2658,
      "Sp": 2659,
      "Route": 2660,
      "strictEqual": 2661,
      "emit": 2662,
      "Names": 2663,
      "Ġdoes": 2664,
      "Run": 2665,
      "break": 2666,
      "Ġtask": 2667,
      "Ġsp": 2668,
      "used": 2669,
      "Cache": 2670,
      "`.": 2671,
      "Called": 2672,
      "gex": 2673,
      "dist": 2674,
      "Implicit": 2675,
      "Div": 2676,
      "ture": 2677,
      "ĠX": 2678,
      "ating": 2679,
      "cache": 2680,
      "ĠTest": 2681,
      "ear": 2682,
      "tl": 2683,
      "Ġvec": 2684,
      "clare": 2685,
      "Ġimage": 2686,
      "Init": 2687,
      "EventListener": 2688,
      "Loading": 2689,
      "ĠthisArg": 2690,
      "vis": 2691,
      "Ġ<=": 2692,
      "ulti": 2693,
      "Ġcolumn": 2694,
      "drop": 2695,
      "Ġflex": 2696,
      "ervices": 2697,
      "acity": 2698,
      "47": 2699,
      "TO": 2700,
      "mod": 2701,
      "uction": 2702,
      "Ġinter": 2703,
      "Ġparsed": 2704,
      "Drag": 2705,
      "Symbol": 2706,
      "ven": 2707,
      "ĠLoDashExplicit": 2708,
      "aract": 2709,
      "unter": 2710,
      "ract": 2711,
      "lide": 2712,
      "Ġallow": 2713,
      "56": 2714,
      "oogle": 2715,
      "ìĹĲ": 2716,
      "route": 2717,
      "ĠAn": 2718,
      "ĠAPI": 2719,
      "define": 2720,
      "createElement": 2721,
      "Ġstyled": 2722,
      "Details": 2723,
      "dom": 2724,
      "itions": 2725,
      "CON": 2726,
      "redicate": 2727,
      "Level": 2728,
      "clear": 2729,
      "Ph": 2730,
      "Snapshot": 2731,
      "ailed": 2732,
      "Ġexpress": 2733,
      "125": 2734,
      "Ag": 2735,
      "dash": 2736,
      "Ġsign": 2737,
      "verse": 2738,
      "One": 2739,
      "Factory": 2740,
      "opyright": 2741,
      "rule": 2742,
      "ĠEvent": 2743,
      "second": 2744,
      "Ġrule": 2745,
      "ensions": 2746,
      "Ġco": 2747,
      "Ġconnect": 2748,
      "way": 2749,
      "ding": 2750,
      "interface": 2751,
      "section": 2752,
      "ĠFunction": 2753,
      "Show": 2754,
      "iables": 2755,
      "Spec": 2756,
      "è¯": 2757,
      "ello": 2758,
      "setState": 2759,
      "ĠLoDashImplicit": 2760,
      "stroke": 2761,
      "Cur": 2762,
      "Ġab": 2763,
      "iginal": 2764,
      "ynamic": 2765,
      "len": 2766,
      "Ġfetch": 2767,
      "Ġweb": 2768,
      "Ġexp": 2769,
      "less": 2770,
      "Ġclose": 2771,
      "dialog": 2772,
      "Ġlimit": 2773,
      "ios": 2774,
      "Ġbut": 2775,
      "}`);": 2776,
      "da": 2777,
      "Json": 2778,
      "Api": 2779,
      "ĠPropTypes": 2780,
      "menu": 2781,
      "Ġmsg": 2782,
      "debug": 2783,
      "Ġag": 2784,
      "åĲ": 2785,
      "Ġwas": 2786,
      "ĠTr": 2787,
      "leted": 2788,
      "application": 2789,
      "Frame": 2790,
      "Next": 2791,
      "dis": 2792,
      "tadata": 2793,
      "xy": 2794,
      "settings": 2795,
      "Styles": 2796,
      "avigation": 2797,
      "off": 2798,
      "Ġ$.": 2799,
      "API": 2800,
      "Pr": 2801,
      "gion": 2802,
      "present": 2803,
      "ĠĠĠĠčĊ": 2804,
      "Ids": 2805,
      "instance": 2806,
      "ception": 2807,
      "Ġ200": 2808,
      "oper": 2809,
      "ugh": 2810,
      "Ġchildren": 2811,
      "stroy": 2812,
      "ollow": 2813,
      "tocol": 2814,
      "save": 2815,
      "____": 2816,
      "ween": 2817,
      "book": 2818,
      "example": 2819,
      "Mouse": 2820,
      "Parser": 2821,
      "multip": 2822,
      "Ġcontain": 2823,
      "ither": 2824,
      "exp": 2825,
      "ride": 2826,
      "Ġind": 2827,
      "Area": 2828,
      "connect": 2829,
      "46": 2830,
      "Pol": 2831,
      "Post": 2832,
      "Ġusing": 2833,
      "ĠRout": 2834,
      "Ġtable": 2835,
      "Project": 2836,
      "æķ": 2837,
      "Ġdb": 2838,
      "El": 2839,
      "IG": 2840,
      "prop": 2841,
      "umi": 2842,
      "imer": 2843,
      "Iterator": 2844,
      "Fix": 2845,
      "PE": 2846,
      "card": 2847,
      "Ġhtml": 2848,
      "Ġeslint": 2849,
      "Ġ\"../../": 2850,
      "Const": 2851,
      "era": 2852,
      "ackage": 2853,
      "ĠQ": 2854,
      "ulp": 2855,
      "Ġ17": 2856,
      "Require": 2857,
      "Ġjust": 2858,
      "Ġtab": 2859,
      "docs": 2860,
      "tri": 2861,
      "Ġ((": 2862,
      "PA": 2863,
      "ABLE": 2864,
      "'];": 2865,
      "Ġsuccess": 2866,
      "transform": 2867,
      "iddle": 2868,
      "Gener": 2869,
      "describe": 2870,
      "Return": 2871,
      "imum": 2872,
      "creen": 2873,
      ":'": 2874,
      "ëĬ": 2875,
      "Ġneed": 2876,
      "Ġsuper": 2877,
      "Option": 2878,
      "buffer": 2879,
      "ors": 2880,
      "chant": 2881,
      "ĠEn": 2882,
      "warn": 2883,
      "Ġlanguage": 2884,
      "Ġ\"/": 2885,
      "Location": 2886,
      "HE": 2887,
      "Ġ{...": 2888,
      "loading": 2889,
      "Ġyour": 2890,
      "rows": 2891,
      "Submit": 2892,
      "42": 2893,
      "ĠForm": 2894,
      "rem": 2895,
      "Stack": 2896,
      "ĠAdd": 2897,
      "flo": 2898,
      "Ġstr": 2899,
      "ĠData": 2900,
      "background": 2901,
      "column": 2902,
      "OwnProperty": 2903,
      "ND": 2904,
      "confirm": 2905,
      "formation": 2906,
      "ĠZ": 2907,
      "lack": 2908,
      "entries": 2909,
      "ragment": 2910,
      "Ġcalculator": 2911,
      "Ġscale": 2912,
      "ĠMap": 2913,
      "ĠHTML": 2914,
      "global": 2915,
      "Ġmore": 2916,
      "First": 2917,
      "ulumi": 2918,
      "ĠIN": 2919,
      "Ġcountry": 2920,
      "mode": 2921,
      "ĉĠĠĠĠĠĠĠ": 2922,
      "Ġoptional": 2923,
      "ĠOn": 2924,
      "$/": 2925,
      "Prefix": 2926,
      "Ġctx": 2927,
      "ero": 2928,
      "Ġ201": 2929,
      "imple": 2930,
      "Process": 2931,
      "Ġprovided": 2932,
      "Ġold": 2933,
      "Ġselect": 2934,
      "Ġheaders": 2935,
      "total": 2936,
      "AP": 2937,
      "ìļ": 2938,
      "Ġ}));": 2939,
      "assign": 2940,
      "TER": 2941,
      "ĉĠĠĠĠĠ": 2942,
      "icy": 2943,
      "')).": 2944,
      "Ġ--": 2945,
      "``": 2946,
      "Ġ{@": 2947,
      "}.": 2948,
      "ily": 2949,
      "Files": 2950,
      "dire": 2951,
      "ombre": 2952,
      "ê°Ģ": 2953,
      ":\"": 2954,
      "now": 2955,
      "static": 2956,
      "atures": 2957,
      "Ġav": 2958,
      "UI": 2959,
      "cel": 2960,
      "Collection": 2961,
      "ìĿ´": 2962,
      "Entity": 2963,
      "375": 2964,
      "Session": 2965,
      "ination": 2966,
      "irt": 2967,
      "ĠNumber": 2968,
      "PO": 2969,
      "ait": 2970,
      "thing": 2971,
      "gest": 2972,
      "Connection": 2973,
      "irection": 2974,
      "Focus": 2975,
      "ires": 2976,
      "pc": 2977,
      "Ġthen": 2978,
      "Param": 2979,
      "num": 2980,
      "ged": 2981,
      "ink": 2982,
      "orld": 2983,
      "umm": 2984,
      "ason": 2985,
      "Ġempty": 2986,
      "Been": 2987,
      "ĠURL": 2988,
      "svg": 2989,
      "ĉĉĉĉĉĉĉ": 2990,
      "scroll": 2991,
      "ĠRequest": 2992,
      "fr": 2993,
      "pop": 2994,
      "LI": 2995,
      "Ġdi": 2996,
      "Mer": 2997,
      "æľ": 2998,
      "Ġê": 2999,
      "Ġcb": 3000,
      "ĠSee": 3001,
      ">',": 3002,
      "category": 3003,
      "full": 3004,
      "hash": 3005,
      "ron": 3006,
      "Ġalign": 3007,
      "Desc": 3008,
      "FA": 3009,
      "ten": 3010,
      "Prop": 3011,
      "Ġstep": 3012,
      "product": 3013,
      "cap": 3014,
      "Ġplace": 3015,
      "Ġvalidate": 3016,
      "Effect": 3017,
      "Ġprop": 3018,
      "script": 3019,
      "toHaveBeen": 3020,
      "ipe": 3021,
      "uri": 3022,
      "Ġdispatch": 3023,
      "Ġcreated": 3024,
      "KEY": 3025,
      "Read": 3026,
      "ending": 3027,
      "Events": 3028,
      "ublish": 3029,
      "apping": 3030,
      "gram": 3031,
      "password": 3032,
      "ĠĠĠĠĠĠĠĠĠĠĠĠĠĠĠĠĠĠĠĠĠĠĠĠĠĠĠĠĠĠĠĠ": 3033,
      "package": 3034,
      "Http": 3035,
      "Ġsecond": 3036,
      "Access": 3037,
      "+'": 3038,
      "stack": 3039,
      "ORS": 3040,
      "URI": 3041,
      "53": 3042,
      "none": 3043,
      "Ġ\"\";": 3044,
      "Ġmode": 3045,
      "tails": 3046,
      "ran": 3047,
      "Red": 3048,
      "addClass": 3049,
      "Ġenv": 3050,
      "ìĦ": 3051,
      "Ġbrowser": 3052,
      "events": 3053,
      "vider": 3054,
      "ë¡": 3055,
      "Str": 3056,
      "Ġiterate": 3057,
      "ëĬĶ": 3058,
      "Bottom": 3059,
      "opts": 3060,
      "pl": 3061,
      "================================": 3062,
      "irtual": 3063,
      "cription": 3064,
      "cell": 3065,
      "Express": 3066,
      "hidden": 3067,
      "ëĭ": 3068,
      "\",\"": 3069,
      "refer": 3070,
      ">>": 3071,
      "step": 3072,
      "Ġmer": 3073,
      ".');": 3074,
      "ĠCol": 3075,
      "pose": 3076,
      "Ġencode": 3077,
      "imate": 3078,
      "ENT": 3079,
      "exist": 3080,
      "Ġpos": 3081,
      "emo": 3082,
      "Ġsession": 3083,
      "Ġpromise": 3084,
      "Ġman": 3085,
      "Ġfill": 3086,
      "ãĢ": 3087,
      "Ġdirect": 3088,
      "material": 3089,
      "62": 3090,
      "(\"#": 3091,
      "includes": 3092,
      "her": 3093,
      "EC": 3094,
      "subscribe": 3095,
      "Nombre": 3096,
      "iant": 3097,
      "æĸ": 3098,
      "Ġ**": 3099,
      "Step": 3100,
      "Ġ11": 3101,
      "ĠAc": 3102,
      "Stream": 3103,
      "Empty": 3104,
      "Picker": 3105,
      "ev": 3106,
      "other": 3107,
      "uf": 3108,
      "amera": 3109,
      "Ġ30": 3110,
      "hook": 3111,
      "ins": 3112,
      "initial": 3113,
      "Max": 3114,
      "SC": 3115,
      "Ġconvert": 3116,
      "Ġdiv": 3117,
      "rency": 3118,
      "tinue": 3119,
      "æķ°": 3120,
      "toHaveBeenCalled": 3121,
      "ĠService": 3122,
      "ĠGObject": 3123,
      "ArrayWrapper": 3124,
      "stamp": 3125,
      "deep": 3126,
      "toggle": 3127,
      "missions": 3128,
      "Co": 3129,
      "native": 3130,
      "arge": 3131,
      "expected": 3132,
      "If": 3133,
      "Ġbuild": 3134,
      "Ġjest": 3135,
      "Ġstyles": 3136,
      "ngine": 3137,
      "Ġnodes": 3138,
      "Transaction": 3139,
      "eq": 3140,
      "models": 3141,
      "ODO": 3142,
      "XT": 3143,
      "Ġå": 3144,
      "Ġclear": 3145,
      "Ġsame": 3146,
      "ĠCopyright": 3147,
      "Async": 3148,
      "users": 3149,
      "ma": 3150,
      "ply": 3151,
      "uy": 3152,
      "Ġaddress": 3153,
      "TT": 3154,
      "day": 3155,
      "pow": 3156,
      "Ġlocation": 3157,
      "ences": 3158,
      "Ġauthor": 3159,
      "Ġfields": 3160,
      "Ġvs": 3161,
      "Ġ1000": 3162,
      "ĠType": 3163,
      "className": 3164,
      "Loader": 3165,
      "/${": 3166,
      "54": 3167,
      "MS": 3168,
      "Rect": 3169,
      "Ġreset": 3170,
      "Ġeach": 3171,
      "Ġselector": 3172,
      "]();": 3173,
      "Ġ),": 3174,
      "Ġcenter": 3175,
      "MAR": 3176,
      "Helper": 3177,
      "çĶ": 3178,
      "Ġdisabled": 3179,
      ";;;;": 3180,
      "Bound": 3181,
      "after": 3182,
      "ĠĠĠĠĠĠĠĠĠĠ": 3183,
      "React": 3184,
      "ACK": 3185,
      "Ġvis": 3186,
      "('<": 3187,
      "omment": 3188,
      "Ġarr": 3189,
      "Parameters": 3190,
      "par": 3191,
      "allow": 3192,
      "iders": 3193,
      "ĠOR": 3194,
      "Delete": 3195,
      "Ġamount": 3196,
      "hr": 3197,
      "redential": 3198,
      "innerHTML": 3199,
      "member": 3200,
      "Ġdown": 3201,
      "ĠLog": 3202,
      "Nac": 3203,
      "visible": 3204,
      "wner": 3205,
      "Ġinto": 3206,
      "Ind": 3207,
      "velo": 3208,
      "Actions": 3209,
      "ummary": 3210,
      "IS": 3211,
      "Password": 3212,
      "Nav": 3213,
      "æĪ": 3214,
      "alance": 3215,
      "Axis": 3216,
      "Hash": 3217,
      "Success": 3218,
      "Ġcy": 3219,
      "lied": 3220,
      "'}": 3221,
      "ctionary": 3222,
      "Load": 3223,
      "Ġaccess": 3224,
      "Nacio": 3225,
      "UP": 3226,
      "draw": 3227,
      "Ġpassword": 3228,
      "Ġelements": 3229,
      "Widget": 3230,
      "btn": 3231,
      "eature": 3232,
      "uce": 3233,
      "Ġplugin": 3234,
      "ĠuseState": 3235,
      "focus": 3236,
      "ì§": 3237,
      "LayoutData": 3238,
      "Btn": 3239,
      "Script": 3240,
      "player": 3241,
      "ym": 3242,
      "trigger": 3243,
      "HO": 3244,
      "ploy": 3245,
      "quires": 3246,
      "ĠSh": 3247,
      "river": 3248,
      "Def": 3249,
      "05": 3250,
      "ĠCheck": 3251,
      "appendChild": 3252,
      "frame": 3253,
      "Ġ];": 3254,
      "Ġcalled": 3255,
      "med": 3256,
      "Ġmw": 3257,
      ")[": 3258,
      "tree": 3259,
      "Ġtypes": 3260,
      "limit": 3261,
      "username": 3262,
      "Enabled": 3263,
      "inst": 3264,
      "Ġob": 3265,
      "Ġ13": 3266,
      "Before": 3267,
      "Mock": 3268,
      "border": 3269,
      "lation": 3270,
      "png": 3271,
      "resources": 3272,
      "ached": 3273,
      "etween": 3274,
      "Ġjindo": 3275,
      "Ġroute": 3276,
      "Expression": 3277,
      "drag": 3278,
      "language": 3279,
      "ater": 3280,
      "room": 3281,
      "ful": 3282,
      "known": 3283,
      "ted": 3284,
      "Ġcategory": 3285,
      "Ġtotal": 3286,
      "Ġnon": 3287,
      "ĉĉĉĉĉĉĉĉ": 3288,
      "Ġrouter": 3289,
      "Points": 3290,
      "properties": 3291,
      "stat": 3292,
      "Interface": 3293,
      "41": 3294,
      "87": 3295,
      "guild": 3296,
      "Ġconnection": 3297,
      "floor": 3298,
      "Builder": 3299,
      "57": 3300,
      "Font": 3301,
      "VER": 3302,
      "Ġne": 3303,
      "maps": 3304,
      "Visible": 3305,
      "heet": 3306,
      "clar": 3307,
      "Ġevents": 3308,
      "\"));": 3309,
      "`)": 3310,
      "ccur": 3311,
      "Ġauth": 3312,
      "ategories": 3313,
      "ĠTrans": 3314,
      "\\.": 3315,
      "ens": 3316,
      "----------------------------------------------------------------": 3317,
      "Router": 3318,
      "small": 3319,
      "Ġ'.": 3320,
      "adio": 3321,
      "amily": 3322,
      "access": 3323,
      "ĠparseInt": 3324,
      "Ġexports": 3325,
      "multiply": 3326,
      "bottom": 3327,
      "leg": 3328,
      "concat": 3329,
      "shift": 3330,
      "Export": 3331,
      "fix": 3332,
      "ĠččĊ": 3333,
      "reset": 3334,
      "destroy": 3335,
      "Ġph": 3336,
      "Ġsome": 3337,
      "Ġhash": 3338,
      "scale": 3339,
      "ibility": 3340,
      "Fields": 3341,
      "results": 3342,
      "Drop": 3343,
      "oriz": 3344,
      "Ġauto": 3345,
      "icle": 3346,
      "Ġdebug": 3347,
      "\"></": 3348,
      "Domain": 3349,
      "Ġ).": 3350,
      "itional": 3351,
      "Ġkeys": 3352,
      "Ġresults": 3353,
      "Single": 3354,
      "åħ": 3355,
      "coding": 3356,
      "lines": 3357,
      "Extension": 3358,
      "$.": 3359,
      "def": 3360,
      "ĠValid": 3361,
      "Ġsk": 3362,
      "lined": 3363,
      "tick": 3364,
      "Transform": 3365,
      "ighlight": 3366,
      "Ġiteratee": 3367,
      "\"))": 3368,
      "BU": 3369,
      "TResult": 3370,
      "lue": 3371,
      "extend": 3372,
      "rix": 3373,
      "Ġattribute": 3374,
      "Description": 3375,
      "cb": 3376,
      "vm": 3377,
      "insert": 3378,
      "adow": 3379,
      "Ġstack": 3380,
      "login": 3381,
      "Za": 3382,
      "Ġcopy": 3383,
      "ords": 3384,
      "Ġ)}": 3385,
      "Ġvscode": 3386,
      "}`,": 3387,
      "translate": 3388,
      "tected": 3389,
      "Ġ\"_": 3390,
      "express": 3391,
      "Interval": 3392,
      "ãĥ": 3393,
      "Ġdis": 3394,
      "fetch": 3395,
      "addEventListener": 3396,
      "ĠUp": 3397,
      "Ġerrors": 3398,
      "subtract": 3399,
      "FOR": 3400,
      "ane": 3401,
      "iler": 3402,
      "Ġhost": 3403,
      "ET": 3404,
      "Ġpa": 3405,
      "Ġbox": 3406,
      "ftware": 3407,
      "ysics": 3408,
      "cdn": 3409,
      "deli": 3410,
      "Border": 3411,
      "Lower": 3412,
      "Sort": 3413,
      "VAL": 3414,
      "Ġlen": 3415,
      "ndar": 3416,
      "crypt": 3417,
      "ince": 3418,
      "ĠTResult": 3419,
      "Scroll": 3420,
      "Ġcss": 3421,
      "alert": 3422,
      "Record": 3423,
      "opacity": 3424,
      "ĠFor": 3425,
      "Ġlogger": 3426,
      "Engine": 3427,
      "talk": 3428,
      "ìł": 3429,
      "dest": 3430,
      "resourceGroupName": 3431,
      "å¤": 3432,
      "ĉčĊ": 3433,
      "ĠState": 3434,
      "lasses": 3435,
      "Ġoccur": 3436,
      "Sequence": 3437,
      "äº": 3438,
      "Ġæ": 3439,
      "rx": 3440,
      "Ġheader": 3441,
      "olver": 3442,
      "dirname": 3443,
      "(__": 3444,
      "mm": 3445,
      "ObjectWrapper": 3446,
      "icons": 3447,
      "fire": 3448,
      "ouse": 3449,
      "ward": 3450,
      "ik": 3451,
      "thumb": 3452,
      "latest": 3453,
      ">'": 3454,
      "Ġcell": 3455,
      "parentNode": 3456,
      "04": 3457,
      "72": 3458,
      "OU": 3459,
      "assets": 3460,
      "Channel": 3461,
      ">):": 3462,
      "entic": 3463,
      "hasOwnProperty": 3464,
      "Ġsupport": 3465,
      "lg": 3466,
      "arm": 3467,
      "ross": 3468,
      "Ġbuffer": 3469,
      "ĠDE": 3470,
      "ĠHe": 3471,
      "¥¼": 3472,
      "Ġpredicate": 3473,
      "ĠTo": 3474,
      "direction": 3475,
      "IE": 3476,
      "constructor": 3477,
      "Ġalready": 3478,
      "payload": 3479,
      "Host": 3480,
      "[],": 3481,
      "level": 3482,
      "Ġproduct": 3483,
      "76": 3484,
      "Book": 3485,
      "Display": 3486,
      "(`${": 3487,
      "VE": 3488,
      "adoId": 3489,
      "rip": 3490,
      "putadoId": 3491,
      "ErrorResponse": 3492,
      "cause": 3493,
      "DiputadoId": 3494,
      "(...": 3495,
      "ging": 3496,
      "Results": 3497,
      "Metadata": 3498,
      ".',": 3499,
      "å®": 3500,
      "ODE": 3501,
      "fg": 3502,
      "pacity": 3503,
      "dispatch": 3504,
      "ãĤ": 3505,
      "73": 3506,
      "sap": 3507,
      "Ġop": 3508,
      "Ġmain": 3509,
      "ERR": 3510,
      "ORD": 3511,
      "Ġmock": 3512,
      "íķĺ": 3513,
      "94": 3514,
      "ji": 3515,
      "ãģ": 3516,
      "admin": 3517,
      "Ġ164": 3518,
      "querySelector": 3519,
      "prec": 3520,
      "platform": 3521,
      "ĠName": 3522,
      "ĠWe": 3523,
      "Only": 3524,
      "Ġloading": 3525,
      "wrap": 3526,
      "Ġlicense": 3527,
      "selector": 3528,
      "Ġthan": 3529,
      "ĠEd": 3530,
      "validate": 3531,
      "85": 3532,
      "This": 3533,
      "Common": 3534,
      "Ġ\"\",": 3535,
      "prev": 3536,
      "Ã«": 3537,
      "Invalid": 3538,
      "checked": 3539,
      "LAY": 3540,
      "We": 3541,
      "ĠView": 3542,
      "Ġpulumi": 3543,
      "Ġinstanceof": 3544,
      "ĠNode": 3545,
      "ultiple": 3546,
      "86": 3547,
      "browser": 3548,
      "can": 3549,
      "{\"": 3550,
      "Ġcomm": 3551,
      "Ġbound": 3552,
      "Ġwrapper": 3553,
      "Ġdistrib": 3554,
      "widget": 3555,
      "âĢ": 3556,
      "Ġnum": 3557,
      "Ġsettings": 3558,
      "ĠsetTimeout": 3559,
      "Local": 3560,
      "(\\": 3561,
      "Browser": 3562,
      "Zoom": 3563,
      "gExp": 3564,
      "dev": 3565,
      "Ġsend": 3566,
      "Ġoption": 3567,
      "Chart": 3568,
      "Ġobjects": 3569,
      "Ġadded": 3570,
      "Month": 3571,
      "åĬ": 3572,
      "ĠRes": 3573,
      "Ġthere": 3574,
      "(\".": 3575,
      "Ġhandler": 3576,
      "Headers": 3577,
      "checkbox": 3578,
      "Queue": 3579,
      "media": 3580,
      "UE": 3581,
      "ness": 3582,
      "Ġedit": 3583,
      "enable": 3584,
      "ĠSub": 3585,
      "ĠComp": 3586,
      "ULT": 3587,
      "74": 3588,
      "cal": 3589,
      "hav": 3590,
      "Ġtx": 3591,
      "Ġreturned": 3592,
      "Animation": 3593,
      "disabled": 3594,
      "ior": 3595,
      "Ġjson": 3596,
      "ĠNot": 3597,
      "ĠWeb": 3598,
      "MENT": 3599,
      "EB": 3600,
      "Tra": 3601,
      "Static": 3602,
      "ĠTODO": 3603,
      "some": 3604,
      "hasClass": 3605,
      "URIComponent": 3606,
      "ë¡ľ": 3607,
      "After": 3608,
      "points": 3609,
      ":\",": 3610,
      "Null": 3611,
      "Us": 3612,
      "submit": 3613,
      "Float": 3614,
      "Properties": 3615,
      "ĠCON": 3616,
      "02": 3617,
      "Gu": 3618,
      "Vec": 3619,
      "Ġclick": 3620,
      "Ġinformation": 3621,
      "logger": 3622,
      "Product": 3623,
      "go": 3624,
      "Ġplay": 3625,
      "Ġdeserial": 3626,
      "Ġexample": 3627,
      "Profile": 3628,
      "Ġmove": 3629,
      "ock": 3630,
      "Ġframe": 3631,
      "\":\"": 3632,
      "Ġchannel": 3633,
      "Canvas": 3634,
      "Ġbind": 3635,
      "Ġbeen": 3636,
      "Ġrole": 3637,
      "chantId": 3638,
      "Ġpol": 3639,
      "Ġsave": 3640,
      "toMatch": 3641,
      "Ġimplements": 3642,
      "ooter": 3643,
      "84": 3644,
      "Uri": 3645,
      "ky": 3646,
      "pages": 3647,
      ">}": 3648,
      "Ġspan": 3649,
      "copy": 3650,
      "/***/": 3651,
      "Tick": 3652,
      "zim": 3653,
      "ĠAll": 3654,
      "404": 3655,
      "Li": 3656,
      "bucket": 3657,
      "home": 3658,
      "random": 3659,
      "char": 3660,
      "Ġmenu": 3661,
      "erson": 3662,
      "Ġ$(\"#": 3663,
      "çĶ¨": 3664,
      "redentials": 3665,
      "DB": 3666,
      "sync": 3667,
      "ws": 3668,
      "}}": 3669,
      "peed": 3670,
      "Ġinclude": 3671,
      "umbers": 3672,
      "Dis": 3673,
      "Doc": 3674,
      "mart": 3675,
      "zy": 3676,
      "ìŀ": 3677,
      "rest": 3678,
      "stream": 3679,
      "Ġtrigger": 3680,
      "collection": 3681,
      "moved": 3682,
      "AW": 3683,
      "opt": 3684,
      "Exception": 3685,
      "COL": 3686,
      "Main": 3687,
      "Ġgo": 3688,
      "empty": 3689,
      "azon": 3690,
      "Play": 3691,
      "sive": 3692,
      "Ġ\"\"": 3693,
      "Repository": 3694,
      "ĠObservable": 3695,
      "Ġscroll": 3696,
      "Age": 3697,
      "Core": 3698,
      "Player": 3699,
      "afe": 3700,
      "make": 3701,
      "igin": 3702,
      "Ġwithout": 3703,
      "ucer": 3704,
      "Category": 3705,
      "Ġdeclare": 3706,
      "orizont": 3707,
      "My": 3708,
      "bile": 3709,
      "è¿": 3710,
      "++;": 3711,
      "52": 3712,
      "OP": 3713,
      "rgb": 3714,
      "ances": 3715,
      "Ġfollow": 3716,
      "Ġrecord": 3717,
      "ixel": 3718,
      "WY": 3719,
      "ä½": 3720,
      "TabPanel": 3721,
      "lags": 3722,
      "lers": 3723,
      "ency": 3724,
      "Ġstop": 3725,
      "odo": 3726,
      "shared": 3727,
      "Call": 3728,
      "edges": 3729,
      "So": 3730,
      "ë¥¼": 3731,
      "Ġ\".": 3732,
      "loaded": 3733,
      "Ġmon": 3734,
      "Contents": 3735,
      "Children": 3736,
      "Operation": 3737,
      "align": 3738,
      "Inst": 3739,
      "Tags": 3740,
      "TTP": 3741,
      "'+": 3742,
      "rough": 3743,
      "ateway": 3744,
      "Ġ22": 3745,
      "izing": 3746,
      "Ġ50": 3747,
      "Metr": 3748,
      "QL": 3749,
      "primary": 3750,
      "Ġ($": 3751,
      "('../": 3752,
      "parsed": 3753,
      "trim": 3754,
      "Ġbo": 3755,
      "network": 3756,
      "Ġattributes": 3757,
      "ierarch": 3758,
      "FAULT": 3759,
      "services": 3760,
      "roke": 3761,
      "metadata": 3762,
      "Styled": 3763,
      "ãĢĤ": 3764,
      "LowerCase": 3765,
      "63": 3766,
      "ced": 3767,
      "Ġfail": 3768,
      "Ġred": 3769,
      "cast": 3770,
      "'>": 3771,
      "Ġvisible": 3772,
      ")(": 3773,
      "vr": 3774,
      "issing": 3775,
      "ites": 3776,
      "Ġnormal": 3777,
      "={()": 3778,
      "errors": 3779,
      "Ġnames": 3780,
      "Ġplaceholder": 3781,
      "normal": 3782,
      "Ġnow": 3783,
      "vec": 3784,
      "(\"/": 3785,
      "oose": 3786,
      "Ġgame": 3787,
      ",\"": 3788,
      "/{": 3789,
      "Ass": 3790,
      "ç»": 3791,
      "mitter": 3792,
      "pacing": 3793,
      "olved": 3794,
      "AutoProv": 3795,
      "61": 3796,
      "Dest": 3797,
      "EMA": 3798,
      "Pattern": 3799,
      "]]": 3800,
      "Ġtoggle": 3801,
      "ibling": 3802,
      "82": 3803,
      "Amount": 3804,
      "Pay": 3805,
      "ection": 3806,
      "rary": 3807,
      "Ġsymbol": 3808,
      "outMat": 3809,
      "ives": 3810,
      "Ġport": 3811,
      "iffer": 3812,
      "Ġinfo": 3813,
      "=\"/": 3814,
      "renderer": 3815,
      "aracter": 3816,
      "SMAR": 3817,
      "throw": 3818,
      "ideo": 3819,
      "arning": 3820,
      "ĠYou": 3821,
      "orizontal": 3822,
      "grid": 3823,
      "nt": 3824,
      "rot": 3825,
      "Ġtwo": 3826,
      "Identifier": 3827,
      "ITORS": 3828,
      "TEDITORS": 3829,
      "TEDITORSUS": 3830,
      "Pop": 3831,
      "arguments": 3832,
      "Ġ$(\".": 3833,
      "SMARTEDITORSUS": 3834,
      "domain": 3835,
      "tml": 3836,
      "}\"": 3837,
      "Ġfunc": 3838,
      "ases": 3839,
      "Ġeither": 3840,
      "Ġalert": 3841,
      "Ġavailable": 3842,
      "-.": 3843,
      "95": 3844,
      "CSS": 3845,
      "Ġlayout": 3846,
      "Ġcommon": 3847,
      "isArray": 3848,
      "Ġ(_": 3849,
      "Ġ24": 3850,
      "TEXT": 3851,
      "Attr": 3852,
      "required": 3853,
      "LIC": 3854,
      "Spy": 3855,
      "]+": 3856,
      "cr": 3857,
      "Ġfn": 3858,
      "Ġday": 3859,
      "ĠMessage": 3860,
      "ĠIS": 3861,
      "Plan": 3862,
      "href": 3863,
      "oSelection": 3864,
      "Ġwait": 3865,
      "Ġ390": 3866,
      "Env": 3867,
      "Enter": 3868,
      "ajax": 3869,
      "Price": 3870,
      "ipp": 3871,
      "sure": 3872,
      "Ġver": 3873,
      "Ġschema": 3874,
      "contain": 3875,
      "Rest": 3876,
      "toLowerCase": 3877,
      "Ġits": 3878,
      "agent": 3879,
      "Ġperiod": 3880,
      "voice": 3881,
      "havior": 3882,
      "81": 3883,
      "Vector": 3884,
      "ble": 3885,
      "Ġgr": 3886,
      "Align": 3887,
      "statusCode": 3888,
      "GET": 3889,
      "ìĦľ": 3890,
      "Tx": 3891,
      "flex": 3892,
      "just": 3893,
      "secret": 3894,
      "amount": 3895,
      "Ġ388": 3896,
      "ìĿĦ": 3897,
      "Full": 3898,
      "Parameter": 3899,
      "vac": 3900,
      "ters": 3901,
      "ested": 3902,
      "clone": 3903,
      "lative": 3904,
      "Ġmouse": 3905,
      "avigator": 3906,
      "DOM": 3907,
      "hn": 3908,
      "ctiv": 3909,
      "oto": 3910,
      "Contract": 3911,
      "ĠĠĠĠĠĠĠĠĠĠĠĠĠĠĠĠĠĠĠĠĠĠĠĠĠĠĠĠĠ": 3912,
      "Ġìŀ": 3913,
      "removeClass": 3914,
      "Ġspecific": 3915,
      "::": 3916,
      "kit": 3917,
      "atio": 3918,
      "Ġtra": 3919,
      "owner": 3920,
      "angle": 3921,
      "Ġwhere": 3922,
      "Ġlevel": 3923,
      "Move": 3924,
      "ĠmaxAge": 3925,
      "Background": 3926,
      "ëĭ¤": 3927,
      "Ġdistributed": 3928,
      "bra": 3929,
      "dk": 3930,
      "ulate": 3931,
      "hether": 3932,
      "Ġ$('.": 3933,
      "Second": 3934,
      "Ġdefined": 3935,
      "embed": 3936,
      "Quest": 3937,
      "83": 3938,
      "||": 3939,
      "Ġtemp": 3940,
      "Ġttl": 3941,
      "FileSync": 3942,
      "feed": 3943,
      "graphy": 3944,
      "utor": 3945,
      "pography": 3946,
      "accept": 3947,
      "////////////////////////////////": 3948,
      "Tooltip": 3949,
      "96": 3950,
      "ade": 3951,
      "gulp": 3952,
      "reject": 3953,
      "Ġpass": 3954,
      "tax": 3955,
      "Ġselection": 3956,
      "IND": 3957,
      "Ġdomain": 3958,
      "ived": 3959,
      "COM": 3960,
      "Ui": 3961,
      "ze": 3962,
      "irective": 3963,
      "LEC": 3964,
      "ĠOr": 3965,
      "Ġcorrect": 3966,
      "500": 3967,
      "handler": 3968,
      "åľ": 3969,
      "ana": 3970,
      "Ġ'')": 3971,
      "ĠText": 3972,
      "Ġdest": 3973,
      "question": 3974,
      "ĠOF": 3975,
      "Changed": 3976,
      "gistry": 3977,
      "Agent": 3978,
      "URE": 3979,
      "Ġ}]": 3980,
      "Ġsingle": 3981,
      "counter": 3982,
      "ĠFile": 3983,
      "Ġ600": 3984,
      "Author": 3985,
      "Vis": 3986,
      "Ġ'-": 3987,
      "Ġts": 3988,
      "Ġwrite": 3989,
      "raint": 3990,
      "asic": 3991,
      "Ġtool": 3992,
      "Ġprevious": 3993,
      "Game": 3994,
      "ga": 3995,
      "è®": 3996,
      "eners": 3997,
      "Ġpanel": 3998,
      "Ġscope": 3999,
      "Ġdid": 4000,
      "ĉĉĉččĊ": 4001,
      "ĠĠĠĠĠĠĠĠĠĠĠĠĠĠĠĠĠĠĠĠĠĠĠĠĠĠĠĠĠĠĠĠĠĠĠĠĠĠĠ": 4002,
      "untime": 4003,
      "aly": 4004,
      "Progress": 4005,
      "Func": 4006,
      "Kind": 4007,
      "fc": 4008,
      "switch": 4009,
      "esca": 4010,
      "peat": 4011,
      "Ġhelper": 4012,
      "Exist": 4013,
      "Ġcannot": 4014,
      "Definition": 4015,
      "71": 4016,
      "Bucket": 4017,
      "setAttribute": 4018,
      "osh": 4019,
      "Ġ!!": 4020,
      "Arr": 4021,
      "Required": 4022,
      "IP": 4023,
      "ead": 4024,
      "æĹ": 4025,
      "Ġqueue": 4026,
      "Ġnetwork": 4027,
      "Ġdialog": 4028,
      "\":[": 4029,
      "oci": 4030,
      "outVec": 4031,
      "print": 4032,
      "ĠcacheControl": 4033,
      "RA": 4034,
      "report": 4035,
      "Ġdrag": 4036,
      "Ġapply": 4037,
      "ose": 4038,
      "}\\": 4039,
      "Ġown": 4040,
      "Ġinsert": 4041,
      "oop": 4042,
      "ordin": 4043,
      "}`;": 4044,
      "ì§Ģ": 4045,
      ")',": 4046,
      "pm": 4047,
      "Ġreport": 4048,
      "Ġ++": 4049,
      "activ": 4050,
      "ĠUse": 4051,
      "Ġtransaction": 4052,
      "TSFile": 4053,
      "Screen": 4054,
      "wd": 4055,
      "}:": 4056,
      "ctor": 4057,
      "ĠìĿ": 4058,
      "Track": 4059,
      "ways": 4060,
      "Ġ60": 4061,
      "Failed": 4062,
      "Ok": 4063,
      "reen": 4064,
      "ĠAl": 4065,
      "Ġattr": 4066,
      "ENSE": 4067,
      "ĠhttpRequest": 4068,
      "Meta": 4069,
      "'].": 4070,
      "Ġ'[": 4071,
      "Ġtrack": 4072,
      "connection": 4073,
      "prevent": 4074,
      "Ġgenerate": 4075,
      "ERROR": 4076,
      "Side": 4077,
      "]).": 4078,
      "ëĵ": 4079,
      "role": 4080,
      "Ġinvalid": 4081,
      "Ġdel": 4082,
      "Ġhere": 4083,
      "Ġcanvas": 4084,
      "ULE": 4085,
      "6875": 4086,
      "tagName": 4087,
      "Sup": 4088,
      "Tmp": 4089,
      "Ġret": 4090,
      "Ġmd": 4091,
      "marker": 4092,
      "classes": 4093,
      "Ġactions": 4094,
      "ders": 4095,
      "lang": 4096,
      "Ġtmp": 4097,
      "Ġpop": 4098,
      "Ġkind": 4099,
      "Ġmethods": 4100,
      "ĠbeforeEach": 4101,
      "Cancel": 4102,
      "EX": 4103,
      "pth": 4104,
      "ypography": 4105,
      "invalid": 4106,
      "Ġdatabase": 4107,
      "Decor": 4108,
      "pane": 4109,
      "encies": 4110,
      "gine": 4111,
      "parameters": 4112,
      "Elements": 4113,
      "acy": 4114,
      "Locale": 4115,
      "Role": 4116,
      "iddleware": 4117,
      "ĠencodeURIComponent": 4118,
      "Bind": 4119,
      "gl": 4120,
      "Ġcancel": 4121,
      "eek": 4122,
      "(['": 4123,
      "Off": 4124,
      "`${": 4125,
      "strap": 4126,
      "Ġfull": 4127,
      "utf": 4128,
      "Ġoper": 4129,
      "Ġiss": 4130,
      "Touch": 4131,
      "Ġextension": 4132,
      "****************************************************************": 4133,
      "Did": 4134,
      "Ġtile": 4135,
      "Ġpas": 4136,
      "ĠBuffer": 4137,
      "struction": 4138,
      "ember": 4139,
      "wise": 4140,
      "Ġrepresent": 4141,
      "Ġunknown": 4142,
      "1875": 4143,
      "super": 4144,
      "padding": 4145,
      "onChange": 4146,
      "(\"./": 4147,
      "Throw": 4148,
      "TIONS": 4149,
      "Ġpoints": 4150,
      "Marker": 4151,
      "\"){": 4152,
      "Av": 4153,
      "oration": 4154,
      "plugins": 4155,
      "hover": 4156,
      "jQuery": 4157,
      "sent": 4158,
      "Ġprefix": 4159,
      "cancel": 4160,
      "ous": 4161,
      "Ġimg": 4162,
      "Ġcard": 4163,
      "complete": 4164,
      "nodes": 4165,
      "Ġ\"âī": 4166,
      "execute": 4167,
      "ernal": 4168,
      "FI": 4169,
      "wrapper": 4170,
      "segment": 4171,
      "Ġplan": 4172,
      "profile": 4173,
      ")){": 4174,
      "pper": 4175,
      "Arrow": 4176,
      "ĠBlock": 4177,
      "EMAIL": 4178,
      "Found": 4179,
      "Ġaut": 4180,
      "SET": 4181,
      "seconds": 4182,
      ">)": 4183,
      "\\\"": 4184,
      "ĠSmart": 4185,
      "ĠField": 4186,
      "aved": 4187,
      "crement": 4188,
      "Scope": 4189,
      "Ġregister": 4190,
      "erved": 4191,
      "[]):": 4192,
      "578": 4193,
      "Ġeditor": 4194,
      "ired": 4195,
      "undle": 4196,
      "ĠBase": 4197,
      "__(": 4198,
      "\"><": 4199,
      "Ġenabled": 4200,
      "654": 4201,
      "Notification": 4202,
      "Circle": 4203,
      "symbol": 4204,
      "é¡": 4205,
      "selection": 4206,
      "Ġinv": 4207,
      "ertical": 4208,
      "Idx": 4209,
      "Prototype": 4210,
      "timeout": 4211,
      "Ġscene": 4212,
      "92": 4213,
      "Disabled": 4214,
      "VENT": 4215,
      "df": 4216,
      "amage": 4217,
      "Shape": 4218,
      "before": 4219,
      "Ġ'../../../": 4220,
      "Radius": 4221,
      "Ġowner": 4222,
      "agn": 4223,
      "']);": 4224,
      "Direction": 4225,
      "Wallet": 4226,
      "ns": 4227,
      "ended": 4228,
      "Ġax": 4229,
      "ĠjQuery": 4230,
      "inputs": 4231,
      "Cap": 4232,
      "Fail": 4233,
      "Ge": 4234,
      "\\/": 4235,
      "Ġtree": 4236,
      "Ġpackage": 4237,
      "termin": 4238,
      "Ġev": 4239,
      "ivot": 4240,
      "alendar": 4241,
      "BE": 4242,
      "oss": 4243,
      "ĠHTTP": 4244,
      "rivia": 4245,
      "åĽ": 4246,
      "ename": 4247,
      "ĠMat": 4248,
      "07": 4249,
      "Cre": 4250,
      "Ġplayer": 4251,
      "ifest": 4252,
      "extension": 4253,
      "Ġwidget": 4254,
      "jsdeli": 4255,
      "panded": 4256,
      "Rows": 4257,
      "jsdelivr": 4258,
      "Tile": 4259,
      "]',": 4260,
      "ech": 4261,
      "Ġvariables": 4262,
      "paces": 4263,
      "ispos": 4264,
      "ĠìĹ": 4265,
      "Ġexists": 4266,
      "Ġjustify": 4267,
      "Calculator": 4268,
      "Pe": 4269,
      "bit": 4270,
      "scene": 4271,
      "panel": 4272,
      "operation": 4273,
      "pfile": 4274,
      "å¼": 4275,
      "iss": 4276,
      "Ġthey": 4277,
      "fade": 4278,
      "ĠAN": 4279,
      "lino": 4280,
      "shsg": 4281,
      "Ġnamespace": 4282,
      "Changes": 4283,
      "olvers": 4284,
      "tools": 4285,
      "####": 4286,
      "Emitter": 4287,
      "Folder": 4288,
      "Send": 4289,
      "Ġanchor": 4290,
      "Ġìł": 4291,
      "Attributes": 4292,
      "Loaded": 4293,
      "pendencies": 4294,
      "defineProperty": 4295,
      "claration": 4296,
      "06": 4297,
      "RAN": 4298,
      "Sibling": 4299,
      "UN": 4300,
      "oLayoutData": 4301,
      "requires": 4302,
      "rome": 4303,
      "Ġbar": 4304,
      "usky": 4305,
      "lated": 4306,
      "ifications": 4307,
      "area": 4308,
      "08": 4309,
      "\\'": 4310,
      "aN": 4311,
      "esh": 4312,
      "Ġ23": 4313,
      "------------": 4314,
      "series": 4315,
      "Ġenable": 4316,
      "Util": 4317,
      "toMatchSnapshot": 4318,
      "site": 4319,
      "è¡": 4320,
      "Ġcap": 4321,
      "Ġduration": 4322,
      "Ġchunk": 4323,
      "configuration": 4324,
      "Editing": 4325,
      "POST": 4326,
      "Direct": 4327,
      "Josh": 4328,
      "OC": 4329,
      "Schedule": 4330,
      "Use": 4331,
      "helpers": 4332,
      "nail": 4333,
      "desc": 4334,
      "ĠNY": 4335,
      "Ġalso": 4336,
      "fields": 4337,
      "white": 4338,
      "precated": 4339,
      "/>": 4340,
      "98": 4341,
      "FC": 4342,
      "SER": 4343,
      "Ġmultiple": 4344,
      "Ġinputs": 4345,
      "Merlino": 4346,
      "JoshMerlino": 4347,
      "Bus": 4348,
      "Center": 4349,
      "ë¦": 4350,
      "stract": 4351,
      "Debug": 4352,
      "ĠHttp": 4353,
      "Undefined": 4354,
      "$(": 4355,
      "97": 4356,
      "AGE": 4357,
      "history": 4358,
      "Ġmy": 4359,
      "Segments": 4360,
      "Ġ```": 4361,
      "ookie": 4362,
      "Ġcolors": 4363,
      "Ġinstead": 4364,
      "Ġassign": 4365,
      "MOD": 4366,
      "sum": 4367,
      "release": 4368,
      "Ġfin": 4369,
      "Toggle": 4370,
      "Ġupdated": 4371,
      "lank": 4372,
      "Cor": 4373,
      "NE": 4374,
      "Rel": 4375,
      "Ġvm": 4376,
      "Contain": 4377,
      "Ġforce": 4378,
      "LAYER": 4379,
      "preventDefault": 4380,
      ";\">": 4381,
      "Day": 4382,
      "master": 4383,
      "conf": 4384,
      "Ġunique": 4385,
      "Ġiterator": 4386,
      "Graph": 4387,
      "Tour": 4388,
      "Ġdon": 4389,
      "Ġasset": 4390,
      "Resize": 4391,
      "ĠTheme": 4392,
      "valu": 4393,
      "boot": 4394,
      "Hover": 4395,
      "å½": 4396,
      "views": 4397,
      "lural": 4398,
      "51": 4399,
      "Network": 4400,
      "Save": 4401,
      "google": 4402,
      "icro": 4403,
      "ersist": 4404,
      "splice": 4405,
      "chemas": 4406,
      "Ġlook": 4407,
      "Pair": 4408,
      ")),": 4409,
      "Num": 4410,
      "gen": 4411,
      "redirect": 4412,
      "Ġrece": 4413,
      "tail": 4414,
      "comment": 4415,
      "Mov": 4416,
      "Columns": 4417,
      "APP": 4418,
      "herit": 4419,
      "zimbra": 4420,
      "System": 4421,
      "ration": 4422,
      "ump": 4423,
      "Ġfocus": 4424,
      "untain": 4425,
      "Ġcontinue": 4426,
      "contact": 4427,
      "amazon": 4428,
      "messages": 4429,
      "video": 4430,
      "WEB": 4431,
      "cs": 4432,
      "gn": 4433,
      "Ġap": 4434,
      "Ġstroke": 4435,
      "Ġ21": 4436,
      "refresh": 4437,
      "Ġprev": 4438,
      "merchantId": 4439,
      "escape": 4440,
      "PACK": 4441,
      "Ġ;": 4442,
      "Ġ'</": 4443,
      "rior": 4444,
      "Ġwrit": 4445,
      "irc": 4446,
      "Room": 4447,
      "ĠDefault": 4448,
      "Do": 4449,
      "TABLE": 4450,
      "cook": 4451,
      "Ġbetween": 4452,
      "colors": 4453,
      "Dropdown": 4454,
      "sWith": 4455,
      "ĠĠĠĠĠĠĠĠĠĠĠĠĠĠ": 4456,
      "storage": 4457,
      "ĠMan": 4458,
      "ĠrequestUrl": 4459,
      "tasks": 4460,
      "zimbraAutoProv": 4461,
      "(<": 4462,
      "gular": 4463,
      "pet": 4464,
      "uble": 4465,
      "ĠLicensed": 4466,
      "________": 4467,
      "ĠRoute": 4468,
      "fee": 4469,
      "ìĸ": 4470,
      "Ġ[]);": 4471,
      "controller": 4472,
      "lapse": 4473,
      "Zone": 4474,
      "idx": 4475,
      "Connect": 4476,
      "ube": 4477,
      "Ġprotected": 4478,
      "pha": 4479,
      "Ġlike": 4480,
      "Handle": 4481,
      "Ġcom": 4482,
      "details": 4483,
      "Ġfa": 4484,
      ")))": 4485,
      "soft": 4486,
      "Policy": 4487,
      "ĠInput": 4488,
      "Ġraw": 4489,
      "struct": 4490,
      "utation": 4491,
      "Ġvolume": 4492,
      "lain": 4493,
      "Ġms": 4494,
      "ĠDi": 4495,
      "Ġroom": 4496,
      "Unit": 4497,
      "generate": 4498,
      "Ġpassed": 4499,
      "400": 4500,
      "cim": 4501,
      "Ġ500": 4502,
      "ĠbackgroundColor": 4503,
      "gative": 4504,
      "riter": 4505,
      "Ġfact": 4506,
      "Ġwant": 4507,
      "Ġdesc": 4508,
      "progress": 4509,
      "Section": 4510,
      "Ġfilename": 4511,
      "ĠSmartCalculator": 4512,
      ".\",": 4513,
      "ls": 4514,
      "viders": 4515,
      "ĠĠĠĠĠĠĠĠčĊ": 4516,
      "ank": 4517,
      "Ġreference": 4518,
      "**/": 4519,
      "serve": 4520,
      "Errors": 4521,
      "ĠWAR": 4522,
      "iece": 4523,
      "Complete": 4524,
      "Ġprint": 4525,
      "\"];": 4526,
      "hello": 4527,
      "attach": 4528,
      "Ġparameters": 4529,
      "Ġng": 4530,
      "Ġdevice": 4531,
      "shape": 4532,
      "ĠJob": 4533,
      "93": 4534,
      "MM": 4535,
      "You": 4536,
      "tmp": 4537,
      "ely": 4538,
      "Ġoperation": 4539,
      "Ġgraph": 4540,
      "Ġìķ": 4541,
      "displayName": 4542,
      "Workspace": 4543,
      "PRO": 4544,
      "¸°": 4545,
      "Ġter": 4546,
      "Regex": 4547,
      "Confirm": 4548,
      "typescript": 4549,
      "encode": 4550,
      "Ġspy": 4551,
      "ĠElement": 4552,
      "ĠRecord": 4553,
      "Ġsetup": 4554,
      "ìĿĺ": 4555,
      "smalltalk": 4556,
      "ĠEditor": 4557,
      "History": 4558,
      "]=\"": 4559,
      "jection": 4560,
      "Ġrefer": 4561,
      "Exec": 4562,
      "Descript": 4563,
      "Ġsupported": 4564,
      "Mapping": 4565,
      "Ġparameter": 4566,
      "Ġvfunc": 4567,
      "come": 4568,
      "Ġ<<": 4569,
      "getBy": 4570,
      "letion": 4571,
      "Ġ??": 4572,
      "ìļ©": 4573,
      "ipping": 4574,
      "1000": 4575,
      "91": 4576,
      "ĠAction": 4577,
      "period": 4578,
      "Ġenc": 4579,
      "track": 4580,
      "ointer": 4581,
      "Ġrefresh": 4582,
      "txt": 4583,
      "ĠLoDashImplicitArrayWrapper": 4584,
      ">\\": 4585,
      "DD": 4586,
      "jax": 4587,
      "prefix": 4588,
      "poration": 4589,
      "æł": 4590,
      "ret": 4591,
      "Ġspace": 4592,
      "Ġbottom": 4593,
      "ressed": 4594,
      "({},": 4595,
      "Ġactual": 4596,
      "vacation": 4597,
      "ov": 4598,
      "zoom": 4599,
      "ĠQuery": 4600,
      "enabled": 4601,
      "Ġparam": 4602,
      "')}": 4603,
      "orders": 4604,
      "Ġ/>,": 4605,
      "Setting": 4606,
      "IRIn": 4607,
      "isposable": 4608,
      "Ratio": 4609,
      "Typography": 4610,
      "canvas": 4611,
      "}));": 4612,
      "åº": 4613,
      "Ġclasses": 4614,
      "mpt": 4615,
      "Ġdraw": 4616,
      "Report": 4617,
      "Ġexcept": 4618,
      "ieve": 4619,
      "Ġzoom": 4620,
      "2679": 4621,
      "ä»¶": 4622,
      "Ġ164578": 4623,
      "6542679": 4624,
      "Ġ1645786542679": 4625,
      "Dist": 4626,
      "Global": 4627,
      "Ter": 4628,
      "Ã©": 4629,
      "inon": 4630,
      "Ġ}}>": 4631,
      "Ġglobals": 4632,
      "PASS": 4633,
      "AA": 4634,
      "Dates": 4635,
      "Fragment": 4636,
      "clip": 4637,
      "Ġ',": 4638,
      "Ġrest": 4639,
      "getAttribute": 4640,
      "Ġsee": 4641,
      "spy": 4642,
      "Ġmarker": 4643,
      "Question": 4644,
      "Can": 4645,
      "sig": 4646,
      "internal": 4647,
      "Ġpattern": 4648,
      "ids": 4649,
      "alculate": 4650,
      "avigate": 4651,
      "Ġcursor": 4652,
      "/'": 4653,
      "SP": 4654,
      "ĠKey": 4655,
      "Ġutils": 4656,
      "Ġopt": 4657,
      ">';": 4658,
      "aa": 4659,
      "dot": 4660,
      "æĺ": 4661,
      "ining": 4662,
      "Ġsuch": 4663,
      "Ġinte": 4664,
      "Segment": 4665,
      "ĠButton": 4666,
      "Ġrot": 4667,
      "Ġconfiguration": 4668,
      "curity": 4669,
      "Tabs": 4670,
      "aracters": 4671,
      "(-": 4672,
      "radio": 4673,
      "uite": 4674,
      "ĠJS": 4675,
      "Ġignore": 4676,
      "chat": 4677,
      "Ġconfirm": 4678,
      "Ġstream": 4679,
      "Reference": 4680,
      "Ġ`<": 4681,
      "Ġprovider": 4682,
      "ä¸Ģ": 4683,
      "vscode": 4684,
      "Admin": 4685,
      "IGH": 4686,
      "uya": 4687,
      "Sk": 4688,
      "YY": 4689,
      "plan": 4690,
      "Ġra": 4691,
      "ĠValue": 4692,
      "download": 4693,
      "Ġfixture": 4694,
      "!.": 4695,
      "'])": 4696,
      "ARE": 4697,
      "ASE": 4698,
      "Ġ'\"": 4699,
      "Ġconf": 4700,
      "Ġdiffer": 4701,
      "Remove": 4702,
      "compare": 4703,
      "iterator": 4704,
      "gration": 4705,
      "umeric": 4706,
      "ìĸ´": 4707,
      "promise": 4708,
      "sample": 4709,
      "Ġfire": 4710,
      "Ġ'&": 4711,
      "adge": 4712,
      "Ġmulti": 4713,
      "ĠPost": 4714,
      "ventory": 4715,
      "achine": 4716,
      "foot": 4717,
      "SELEC": 4718,
      "ä¸Ń": 4719,
      "Ġexisting": 4720,
      "Ġclone": 4721,
      "Ġcluster": 4722,
      "exists": 4723,
      "entication": 4724,
      "ves": 4725,
      "åĩ": 4726,
      "att": 4727,
      "animate": 4728,
      "Ġ'\\": 4729,
      "uggest": 4730,
      "notify": 4731,
      "tooltip": 4732,
      "Feature": 4733,
      "Series": 4734,
      "Ġsim": 4735,
      "eta": 4736,
      "izes": 4737,
      "reduce": 4738,
      "ClassName": 4739,
      "Checkbox": 4740,
      "Comm": 4741,
      "FT": 4742,
      "mt": 4743,
      "watch": 4744,
      "è½": 4745,
      "device": 4746,
      "avatar": 4747,
      "ĠNote": 4748,
      "Groups": 4749,
      "Ġindic": 4750,
      "Ġmerge": 4751,
      "COLOR": 4752,
      ">.": 4753,
      "Pool": 4754,
      "Upper": 4755,
      "bb": 4756,
      "åŃ": 4757,
      "Ġge": 4758,
      "cordion": 4759,
      "changed": 4760,
      "ĠfontSize": 4761,
      "visit": 4762,
      ")/": 4763,
      "Boolean": 4764,
      "éĢ": 4765,
      "reates": 4766,
      "Ġdrop": 4767,
      "Ġdom": 4768,
      "Ġgrid": 4769,
      "Validation": 4770,
      "Where": 4771,
      "ĠANY": 4772,
      "Job": 4773,
      "à¹": 4774,
      "Ġ{/*": 4775,
      "chain": 4776,
      "('[": 4777,
      "PRE": 4778,
      "ëĲ": 4779,
      "Ġíķ": 4780,
      "Ġregion": 4781,
      "Ġchecked": 4782,
      "Ġfollowing": 4783,
      "Non": 4784,
      "]},": 4785,
      "blem": 4786,
      "til": 4787,
      "itude": 4788,
      "Ġdiff": 4789,
      "illing": 4790,
      "lapsed": 4791,
      "ĠDEFAULT": 4792,
      "ðĿ": 4793,
      "Ġrect": 4794,
      "Ġtake": 4795,
      "lodash": 4796,
      "ĠTask": 4797,
      "cursor": 4798,
      "Ġpermissions": 4799,
      "Img": 4800,
      "ĠSearch": 4801,
      "WORD": 4802,
      "optional": 4803,
      "segments": 4804,
      "()}": 4805,
      "imated": 4806,
      "ours": 4807,
      "testing": 4808,
      "subscription": 4809,
      "255": 4810,
      "Ġtags": 4811,
      "Ang": 4812,
      "Lim": 4813,
      "Lib": 4814,
      "inary": 4815,
      "Ġ{!": 4816,
      "declare": 4817,
      "Arn": 4818,
      "workspace": 4819,
      "ĠblockSize": 4820,
      "Ġenvironment": 4821,
      "Ġskip": 4822,
      "Weight": 4823,
      "Space": 4824,
      "tile": 4825,
      "roy": 4826,
      "Ġ->": 4827,
      "Ġbecause": 4828,
      "Ġidx": 4829,
      "ORT": 4830,
      "ometry": 4831,
      "Edge": 4832,
      "PASSWORD": 4833,
      "+\"": 4834,
      "Port": 4835,
      "Slider": 4836,
      "]),": 4837,
      "elem": 4838,
      "git": 4839,
      "ench": 4840,
      "','": 4841,
      "('');": 4842,
      "ĠuseEffect": 4843,
      "Ġoriginal": 4844,
      "bound": 4845,
      "Ġenumer": 4846,
      "Ġusername": 4847,
      "DateTime": 4848,
      "ranch": 4849,
      "Users": 4850,
      "Comment": 4851,
      "Glob": 4852,
      "car": 4853,
      "margin": 4854,
      "á»": 4855,
      "Ġ-=": 4856,
      "variable": 4857,
      "verter": 4858,
      "ĠRead": 4859,
      "created": 4860,
      "Ġ\"âĪ": 4861,
      "Ġbased": 4862,
      "MB": 4863,
      "Mil": 4864,
      "ZE": 4865,
      "[])": 4866,
      "audio": 4867,
      "fl": 4868,
      "kind": 4869,
      "Ġremoved": 4870,
      "Ġtheir": 4871,
      "Ġ*/}": 4872,
      "alling": 4873,
      "ather": 4874,
      "screen": 4875,
      "Ġsmall": 4876,
      "skip": 4877,
      "TYPE": 4878,
      "Fixed": 4879,
      "ë¦¬": 4880,
      "MODULE": 4881,
      "TD": 4882,
      "ds": 4883,
      "dates": 4884,
      "dynamic": 4885,
      "arrow": 4886,
      "chunk": 4887,
      "ĠRegExp": 4888,
      "Ġcommit": 4889,
      "Del": 4890,
      "HR": 4891,
      "Temp": 4892,
      "mote": 4893,
      "ru": 4894,
      "Alert": 4895,
      "Ġsubmit": 4896,
      "Endpoint": 4897,
      "Footer": 4898,
      "---": 4899,
      "Ġbtn": 4900,
      "Stat": 4901,
      "oreground": 4902,
      "cade": 4903,
      "ĠparsedErrorResponse": 4904,
      "\",\"#": 4905,
      "ĠUpdate": 4906,
      "Assign": 4907,
      "ATION": 4908,
      "Iss": 4909,
      "Mesh": 4910,
      "diff": 4911,
      "icles": 4912,
      "Inject": 4913,
      "rentals": 4914,
      "latten": 4915,
      "Cells": 4916,
      "Variable": 4917,
      "ëĵľ": 4918,
      "database": 4919,
      "ĠResponse": 4920,
      "setup": 4921,
      "ocused": 4922,
      "ĠSo": 4923,
      "Ġ\"âĬ": 4924,
      "deepEqual": 4925,
      "Ab": 4926,
      "Batch": 4927,
      "Diff": 4928,
      "Fin": 4929,
      "Light": 4930,
      "Package": 4931,
      "Ä±": 4932,
      "Ġlayer": 4933,
      "Ġvariant": 4934,
      "ĠAuth": 4935,
      "Bytes": 4936,
      "Ġmessages": 4937,
      "ä¸º": 4938,
      "Cursor": 4939,
      "ZaDomain": 4940,
      "Hook": 4941,
      "dat": 4942,
      "picker": 4943,
      "olution": 4944,
      "Initial": 4945,
      "pointer": 4946,
      "Objects": 4947,
      "Activ": 4948,
      "duration": 4949,
      "ied": 4950,
      "plot": 4951,
      "armon": 4952,
      "Ġcore": 4953,
      "Ġmodal": 4954,
      "Internal": 4955,
      "names": 4956,
      "final": 4957,
      "Ġchart": 4958,
      "True": 4959,
      "ategy": 4960,
      "ouch": 4961,
      "<{": 4962,
      "Hello": 4963,
      "ĉĠĠĠĠĠĠĠĠĠĠĠ": 4964,
      "isN": 4965,
      "Ġ'$": 4966,
      "Stats": 4967,
      "abs": 4968,
      "lette": 4969,
      "Enum": 4970,
      "substr": 4971,
      "responseBody": 4972,
      "SH": 4973,
      "bot": 4974,
      "²½": 4975,
      "olid": 4976,
      "ĠBuild": 4977,
      "ORTED": 4978,
      "Upload": 4979,
      "topic": 4980,
      "4375": 4981,
      "dition": 4982,
      "aria": 4983,
      "Ġ[[": 4984,
      "Ġ/^": 4985,
      "aybe": 4986,
      "123": 4987,
      "peri": 4988,
      "Lock": 4989,
      "Ġtimeout": 4990,
      "interop": 4991,
      "Socket": 4992,
      "Ġinvok": 4993,
      "ĠWARRAN": 4994,
      "oice": 4995,
      "alth": 4996,
      "Ġ('": 4997,
      "Ġpl": 4998,
      "Ġbot": 4999,
      "Contact": 5000,
      "ĠTH": 5001,
      "ĠCustom": 5002,
      "ĠDes": 5003,
      "cessed": 5004,
      "Ġchanges": 5005,
      "Ġtopic": 5006,
      "ĠRouter": 5007,
      "Ġdirectory": 5008,
      "WEBPACK": 5009,
      "sigName": 5010,
      "Ġdifferent": 5011,
      "blue": 5012,
      "âĶ": 5013,
      "ara": 5014,
      "unch": 5015,
      "Ġdetails": 5016,
      "ĠParse": 5017,
      "ĠMy": 5018,
      "Ġargument": 5019,
      "lates": 5020,
      "ä¸ª": 5021,
      "strong": 5022,
      "Ġrules": 5023,
      "Destroy": 5024,
      "armony": 5025,
      "VG": 5026,
      "ìľ": 5027,
      "Ġ])": 5028,
      "Ġreplace": 5029,
      "Ġaria": 5030,
      "Ġendpoint": 5031,
      "library": 5032,
      "Ġsoftware": 5033,
      "Scene": 5034,
      "åıĸ": 5035,
      "Descriptor": 5036,
      "Press": 5037,
      "Parse": 5038,
      "Src": 5039,
      "black": 5040,
      "cip": 5041,
      "folder": 5042,
      "jindo": 5043,
      "schedule": 5044,
      "road": 5045,
      "Ġfailed": 5046,
      "Ġthem": 5047,
      "getTime": 5048,
      "ertific": 5049,
      "ĠLay": 5050,
      ";;;;;;;;": 5051,
      "husky": 5052,
      "ëı": 5053,
      "ĠCode": 5054,
      "ĠWIT": 5055,
      "++){": 5056,
      "Asset": 5057,
      "Ġloaded": 5058,
      ")\",": 5059,
      ";}": 5060,
      "OW": 5061,
      "ian": 5062,
      "summary": 5063,
      "attribute": 5064,
      "Ġopacity": 5065,
      "fail": 5066,
      "Ġmetadata": 5067,
      "Messages": 5068,
      "Ġusers": 5069,
      "front": 5070,
      "UiForm": 5071,
      "ossible": 5072,
      "bootstrap": 5073,
      "ĠDictionary": 5074,
      "kg": 5075,
      "Ġht": 5076,
      "Ġui": 5077,
      "ĠPer": 5078,
      "Ġbeing": 5079,
      "Translation": 5080,
      "ĠVersion": 5081,
      "Ġperform": 5082,
      "Ġloop": 5083,
      "reshold": 5084,
      "'},": 5085,
      "EVENT": 5086,
      "IMP": 5087,
      "gg": 5088,
      "ĠLink": 5089,
      ")));": 5090,
      "uffix": 5091,
      "Ġloader": 5092,
      "commands": 5093,
      "ociated": 5094,
      "agnost": 5095,
      "SU": 5096,
      "TA": 5097,
      "high": 5098,
      "Ġhead": 5099,
      "unit": 5100,
      "Ġpane": 5101,
      "utable": 5102,
      "idoId": 5103,
      "otion": 5104,
      "touch": 5105,
      "END": 5106,
      "price": 5107,
      "PartidoId": 5108,
      "IGHT": 5109,
      "aut": 5110,
      "eatures": 5111,
      "fra": 5112,
      "wp": 5113,
      "çĽ": 5114,
      "ada": 5115,
      "scss": 5116,
      "valueOf": 5117,
      "Ġwhat": 5118,
      "rightness": 5119,
      "ĠLoDashExplicitWrapper": 5120,
      "trie": 5121,
      "velop": 5122,
      "Like": 5123,
      ".*": 5124,
      "Native": 5125,
      "Switch": 5126,
      "Ġ{})": 5127,
      "decode": 5128,
      "loop": 5129,
      "Ġwarn": 5130,
      "Ġharmony": 5131,
      "ffff": 5132,
      "ĠRE": 5133,
      "ĠWh": 5134,
      "mbed": 5135,
      "Import": 5136,
      "uilt": 5137,
      "grade": 5138,
      "Renderer": 5139,
      "GB": 5140,
      "PL": 5141,
      "ront": 5142,
      "sv": 5143,
      "{{": 5144,
      "ìĥ": 5145,
      "ĭľ": 5146,
      "Ġstorage": 5147,
      "ĠTHE": 5148,
      "ĠCommand": 5149,
      "ĠNo": 5150,
      "haser": 5151,
      ">');": 5152,
      "]*": 5153,
      "vers": 5154,
      "win": 5155,
      "Ġ----------------------------------------------------------------": 5156,
      "original": 5157,
      "Ġtick": 5158,
      "ado": 5159,
      "ets": 5160,
      "Ġhide": 5161,
      "socket": 5162,
      "TIES": 5163,
      "swer": 5164,
      "reference": 5165,
      ">\"": 5166,
      "Mount": 5167,
      "Write": 5168,
      "bg": 5169,
      "eam": 5170,
      "hex": 5171,
      "iq": 5172,
      "job": 5173,
      "wt": 5174,
      "zone": 5175,
      "record": 5176,
      "ĉĉčĊ": 5177,
      "Ġreason": 5178,
      "trl": 5179,
      "256": 5180,
      "ĠLoDashImplicitObjectWrapper": 5181,
      "Ġagain": 5182,
      "CC": 5183,
      "dt": 5184,
      "å°": 5185,
      "Ġjs": 5186,
      "iness": 5187,
      "ural": 5188,
      "Ġprimary": 5189,
      "Ġdisable": 5190,
      "Ġanimation": 5191,
      "achieve": 5192,
      "2018": 5193,
      "voke": 5194,
      "toHaveBeenCalledWith": 5195,
      "Med": 5196,
      "fd": 5197,
      "å·": 5198,
      "Ġfinal": 5199,
      "Ġfunctions": 5200,
      "ĠIt": 5201,
      "ĠIcon": 5202,
      "ured": 5203,
      "Timeline": 5204,
      "Transition": 5205,
      "Ġrows": 5206,
      "Worker": 5207,
      "ĠLoDashExplicitArrayWrapper": 5208,
      "ĠOnInit": 5209,
      "More": 5210,
      "}',": 5211,
      "ä¹": 5212,
      "strip": 5213,
      "Truth": 5214,
      "2010": 5215,
      "Ġcontains": 5216,
      "åľ¨": 5217,
      "footer": 5218,
      "Emp": 5219,
      "ace": 5220,
      "family": 5221,
      "ually": 5222,
      "region": 5223,
      "itive": 5224,
      "Ġmb": 5225,
      "agement": 5226,
      "Ġdelay": 5227,
      "')[": 5228,
      "pache": 5229,
      "ĠGener": 5230,
      "Colors": 5231,
      "classList": 5232,
      "previous": 5233,
      "lastic": 5234,
      "routerLink": 5235,
      "blob": 5236,
      "sBy": 5237,
      "Ġ]);": 5238,
      "attributes": 5239,
      "Ġfloat": 5240,
      "Ġnone": 5241,
      "Ġcons": 5242,
      "ĠSerial": 5243,
      "redux": 5244,
      "ientation": 5245,
      "riority": 5246,
      "DATE": 5247,
      "Hidden": 5248,
      "float": 5249,
      "Ġemit": 5250,
      "Ġthrough": 5251,
      "Ġnav": 5252,
      "Ġsure": 5253,
      "Ġdirection": 5254,
      "rive": 5255,
      "ĠIE": 5256,
      "antity": 5257,
      "Ġwithin": 5258,
      "ĠìĤ": 5259,
      "Login": 5260,
      "commend": 5261,
      "Ġchanged": 5262,
      "Ġdefine": 5263,
      "Generated": 5264,
      "æĸĩ": 5265,
      "VALID": 5266,
      "GlobMatch": 5267,
      "\".": 5268,
      ".</": 5269,
      "=${": 5270,
      "BG": 5271,
      "Dom": 5272,
      "IM": 5273,
      "XL": 5274,
      "help": 5275,
      "æī": 5276,
      "èİ": 5277,
      "Ġrelease": 5278,
      "Ġside": 5279,
      "emon": 5280,
      "ĠLoc": 5281,
      "agraph": 5282,
      "Device": 5283,
      "Declaration": 5284,
      "substring": 5285,
      "rendering": 5286,
      "Clusterer": 5287,
      "Physics": 5288,
      "rxjs": 5289,
      "è¡¨": 5290,
      "Gr": 5291,
      "PER": 5292,
      "æį": 5293,
      "Ġclean": 5294,
      "alf": 5295,
      "anchor": 5296,
      "Ġwrap": 5297,
      "ĠPublic": 5298,
      "Ġgulp": 5299,
      "Seq": 5300,
      "Char": 5301,
      "ĠBoolean": 5302,
      "bserver": 5303,
      "Thumb": 5304,
      "roadcast": 5305,
      "Par": 5306,
      "Ġ':": 5307,
      "Ġequal": 5308,
      "constants": 5309,
      "TIVE": 5310,
      "ĠChange": 5311,
      "ìļ°": 5312,
      "icrosoft": 5313,
      "LS": 5314,
      "rev": 5315,
      "Ġcircle": 5316,
      "Ġ'');": 5317,
      "Ġscreen": 5318,
      "Ġour": 5319,
      "Ġdecode": 5320,
      "ĠApache": 5321,
      "yntax": 5322,
      "ĠOptional": 5323,
      "axip": 5324,
      "udy": 5325,
      "Permission": 5326,
      "greg": 5327,
      "LOC": 5328,
      "Ġdialling": 5329,
      "axipmon": 5330,
      "KEN": 5331,
      "ycle": 5332,
      "ĠConfig": 5333,
      "rel": 5334,
      "thers": 5335,
      "met": 5336,
      "Ġinject": 5337,
      ")._": 5338,
      "Rece": 5339,
      "ĠProps": 5340,
      "ĠClient": 5341,
      "ĠCSS": 5342,
      "uses": 5343,
      "ĠFloat": 5344,
      "Ġchain": 5345,
      "orkContext": 5346,
      "Ġalt": 5347,
      "}`)": 5348,
      "controls": 5349,
      "merge": 5350,
      "Defined": 5351,
      "acceptLanguage": 5352,
      "Com": 5353,
      "License": 5354,
      "Observable": 5355,
      "Ġscript": 5356,
      "ĠUint": 5357,
      "ĠNetwork": 5358,
      "Limit": 5359,
      "!!": 5360,
      "_(": 5361,
      "radius": 5362,
      "spacing": 5363,
      "Ġlines": 5364,
      "cover": 5365,
      "Ġwhether": 5366,
      "quare": 5367,
      "Ġadditional": 5368,
      "Ġtransition": 5369,
      "Ġmatches": 5370,
      ">();": 5371,
      "Ctrl": 5372,
      "XHR": 5373,
      "Year": 5374,
      "cloud": 5375,
      "ole": 5376,
      "æĿ": 5377,
      "anner": 5378,
      "Ġ**/": 5379,
      "Ġnumbers": 5380,
      "Ġincl": 5381,
      "ava": 5382,
      "Ġë°": 5383,
      "ä¸ĭ": 5384,
      "Runner": 5385,
      "IMPORTED": 5386,
      "AM": 5387,
      "Timer": 5388,
      "Tuya": 5389,
      "helper": 5390,
      "wel": 5391,
      "éĹ": 5392,
      "ensor": 5393,
      "ifies": 5394,
      "Ġsample": 5395,
      "ptide": 5396,
      "Ġ25": 5397,
      "Ġ400": 5398,
      "notification": 5399,
      "ferred": 5400,
      "Ġacc": 5401,
      "fnBucket": 5402,
      "firmed": 5403,
      "charts": 5404,
      "Rules": 5405,
      "Ġfixed": 5406,
      "Guide": 5407,
      "Ġmonth": 5408,
      "Sample": 5409,
      "[^": 5410,
      "inject": 5411,
      "Ġbg": 5412,
      "('../../": 5413,
      "ĠCreates": 5414,
      "proto": 5415,
      "ixin": 5416,
      "Formation": 5417,
      "ĠVirtual": 5418,
      "Pages": 5419,
      "features": 5420,
      "loudFormation": 5421,
      "DescTemplate": 5422,
      "Ġplugins": 5423,
      "Bookmark": 5424,
      "Angle": 5425,
      ".'": 5426,
      "OS": 5427,
      "ae": 5428,
      "andard": 5429,
      "Ġgover": 5430,
      "TRI": 5431,
      "ServicePlan": 5432,
      "Urls": 5433,
      "Ġdistance": 5434,
      "Fetch": 5435,
      "dap": 5436,
      "nip": 5437,
      "Ġ{'": 5438,
      "Ġ}:": 5439,
      "Ġaudio": 5440,
      "('{": 5441,
      "Ġ//_.": 5442,
      "ocial": 5443,
      "ĉĉĉĉččĊ": 5444,
      "aging": 5445,
      "Ġprotocol": 5446,
      "Example": 5447,
      "avas": 5448,
      "Without": 5449,
      "iteral": 5450,
      "MSG": 5451,
      "Ġobtain": 5452,
      "ĠìĿ´": 5453,
      "èİ·": 5454,
      "Ġfree": 5455,
      "Ġserial": 5456,
      "Ġdir": 5457,
      "Ġhand": 5458,
      "provider": 5459,
      "akes": 5460,
      "acc": 5461,
      "InputTSFile": 5462,
      "vertical": 5463,
      "(/^": 5464,
      "sim": 5465,
      "va": 5466,
      "ä¿": 5467,
      "Ġ].": 5468,
      "rep": 5469,
      "('\\": 5470,
      "cest": 5471,
      "respon": 5472,
      "ĠMain": 5473,
      "Ġ39": 5474,
      "ĠUI": 5475,
      "Ġapplic": 5476,
      "ymce": 5477,
      "Ġaxios": 5478,
      "TuyaData": 5479,
      "clo": 5480,
      "routes": 5481,
      "locale": 5482,
      "cha": 5483,
      "=\"#": 5484,
      "******/": 5485,
      "pectRatio": 5486,
      "Statement": 5487,
      "cluster": 5488,
      "force": 5489,
      "Toolbar": 5490,
      "Ġdownload": 5491,
      "\"}": 5492,
      ".\");": 5493,
      "Html": 5494,
      "damage": 5495,
      "oNode": 5496,
      "wallet": 5497,
      "Ġ}],": 5498,
      "del": 5499,
      "urse": 5500,
      "Ġsent": 5501,
      "Ġdim": 5502,
      "asset": 5503,
      "allery": 5504,
      "lectron": 5505,
      "INT": 5506,
      "pie": 5507,
      "/*!": 5508,
      "ĠYork": 5509,
      "Ġotherwise": 5510,
      "venance": 5511,
      "legate": 5512,
      "/:": 5513,
      "Ali": 5514,
      "Embed": 5515,
      "Total": 5516,
      "Ġ{});": 5517,
      "Ġsite": 5518,
      "Ġword": 5519,
      "Reset": 5520,
      "={(": 5521,
      "ĠDOM": 5522,
      "lyph": 5523,
      "Protocol": 5524,
      "Components": 5525,
      "worker": 5526,
      "ĠInt": 5527,
      "Ġmoment": 5528,
      "Logger": 5529,
      "ĠLoDashStatic": 5530,
      "SELECT": 5531,
      "ĠWARRANTIES": 5532,
      "CRE": 5533,
      "Sheet": 5534,
      "ii": 5535,
      "inline": 5536,
      "Ġevery": 5537,
      "ĠSE": 5538,
      "ĠPart": 5539,
      "ĠĠĠĠĠĠĠĠĠĠĠĠĠĠĠĠĠĠĠĠĠĠĠĠĠĠĠĠĠĠĠĠĠĠĠĠĠĠĠĠĠĠĠ": 5540,
      "Ġ(!(": 5541,
      "defaults": 5542,
      "2015": 5543,
      "TagName": 5544,
      "SIWY": 5545,
      "SIZE": 5546,
      "tinymce": 5547,
      "Dictionary": 5548,
      "6250": 5549,
      "SIWYG": 5550,
      "Video": 5551,
      "buf": 5552,
      "fb": 5553,
      "fy": 5554,
      "qXHR": 5555,
      "Ġ90": 5556,
      "Ġreverse": 5557,
      "Ġpool": 5558,
      "Ġhistory": 5559,
      "ToString": 5560,
      "ĠUs": 5561,
      "Ġshape": 5562,
      "transition": 5563,
      "[]>": 5564,
      "licenses": 5565,
      "Ġtasks": 5566,
      "Strategy": 5567,
      "\"+": 5568,
      "*}": 5569,
      "Place": 5570,
      "iases": 5571,
      "since": 5572,
      "ä¼": 5573,
      "ðŁ": 5574,
      "įç": 5575,
      "sel": 5576,
      "Ġ\",": 5577,
      "Ġregex": 5578,
      "ĠMIT": 5579,
      "ResGrid": 5580,
      "Ġsecret": 5581,
      "Ġunit": 5582,
      "ĠNOT": 5583,
      "games": 5584,
      "warning": 5585,
      "UiFormResGrid": 5586,
      "avascript": 5587,
      "Family": 5588,
      "bl": 5589,
      "ulation": 5590,
      "Ġbook": 5591,
      "Ġbuf": 5592,
      "Ġworld": 5593,
      "eeded": 5594,
      "Ġmaximum": 5595,
      "ALL": 5596,
      "pending": 5597,
      "Ġactiv": 5598,
      "Ġdoesn": 5599,
      "hooks": 5600,
      "Indent": 5601,
      "Break": 5602,
      "Help": 5603,
      "¬¸": 5604,
      "ë©": 5605,
      "Ġet": 5606,
      "ĠĠččĊ": 5607,
      "Ġhidden": 5608,
      "ĠMe": 5609,
      "ĠDocument": 5610,
      "Lines": 5611,
      "styled": 5612,
      "Ġ\"âĭ": 5613,
      "TestId": 5614,
      "Ġcomplete": 5615,
      "Ġ385": 5616,
      "bytes": 5617,
      "Matrix": 5618,
      "isionName": 5619,
      "Balance": 5620,
      "Has": 5621,
      "OUT": 5622,
      "Ġbatch": 5623,
      "Stop": 5624,
      "Ġgl": 5625,
      "Ġgre": 5626,
      "Ġcharacters": 5627,
      "Ġlight": 5628,
      "Ġpaths": 5629,
      "cursive": 5630,
      "transaction": 5631,
      "Ġrights": 5632,
      "Metric": 5633,
      "æĺ¯": 5634,
      "system": 5635,
      "ĠId": 5636,
      "Ġentries": 5637,
      "('@": 5638,
      "tric": 5639,
      "ĠDis": 5640,
      "Links": 5641,
      "Ġcompli": 5642,
      "Ġcontents": 5643,
      "ATA": 5644,
      "ĠlocalStorage": 5645,
      "Ġsplit": 5646,
      "ParamSpec": 5647,
      "HOUT": 5648,
      "babel": 5649,
      "}).": 5650,
      "åĨ": 5651,
      "åĮ": 5652,
      "Ĭ¤": 5653,
      "reply": 5654,
      "atural": 5655,
      "Ġ{*}": 5656,
      "ari": 5657,
      "Ġ'_": 5658,
      "Ġps": 5659,
      "iform": 5660,
      "resize": 5661,
      "__.": 5662,
      "ITY": 5663,
      "Ġvalidation": 5664,
      "Note": 5665,
      "Ġcontroller": 5666,
      "(?:": 5667,
      "Directive": 5668,
      "erc": 5669,
      "decor": 5670,
      "entities": 5671,
      "Ġparser": 5672,
      "ĠdefaultValue": 5673,
      "Texture": 5674,
      "terfaces": 5675,
      "ADD": 5676,
      "Reducer": 5677,
      "rotate": 5678,
      "cookie": 5679,
      "Milit": 5680,
      "Truthy": 5681,
      ")?": 5682,
      "CD": 5683,
      "EL": 5684,
      "Padding": 5685,
      "cut": 5686,
      "iver": 5687,
      "xhr": 5688,
      "âķ": 5689,
      "íĬ": 5690,
      "Ġ40": 5691,
      "LETE": 5692,
      "month": 5693,
      "ancias": 5694,
      "íķľ": 5695,
      "LICENSE": 5696,
      "Militancias": 5697,
      "%;": 5698,
      "Dynamic": 5699,
      "Highlight": 5700,
      "dark": 5701,
      "mask": 5702,
      "volume": 5703,
      "Ġcomment": 5704,
      "Ġ\"${": 5705,
      "contract": 5706,
      "ram": 5707,
      "ĠTable": 5708,
      "ĠSign": 5709,
      "ĠItem": 5710,
      "Ġ300": 5711,
      "Ġencoding": 5712,
      "when": 5713,
      "ìĹĲìĦľ": 5714,
      "ĠTransaction": 5715,
      "'re": 5716,
      "(',": 5717,
      ".`);": 5718,
      "Home": 5719,
      "Helpers": 5720,
      "bench": 5721,
      "éĩ": 5722,
      "Ġ}))": 5723,
      "Ġrelative": 5724,
      "apache": 5725,
      "prod": 5726,
      "Ġbehavior": 5727,
      "ĠBrowser": 5728,
      "Ġsetting": 5729,
      "Ġë¶": 5730,
      "Ġlogin": 5731,
      "Refresh": 5732,
      "toBeTruthy": 5733,
      "lexa": 5734,
      "weight": 5735,
      "CHAN": 5736,
      "Signature": 5737,
      "Ġcolumns": 5738,
      "OUNT": 5739,
      "æĹ¶": 5740,
      "/******/": 5741,
      "Duration": 5742,
      "Ne": 5743,
      "runtime": 5744,
      "zip": 5745,
      "animation": 5746,
      "Ġput": 5747,
      "Ġconstraint": 5748,
      "Ġinline": 5749,
      "article": 5750,
      "Resolver": 5751,
      "Deploy": 5752,
      "axis": 5753,
      "anti": 5754,
      "ĠNO": 5755,
      "ĠWork": 5756,
      "overflow": 5757,
      "ished": 5758,
      "ĠStore": 5759,
      "Ġoverride": 5760,
      "ĠListIterator": 5761,
      "Generator": 5762,
      "FORE": 5763,
      "Ġissue": 5764,
      "ĠJobDescTemplate": 5765,
      "Slot": 5766,
      "World": 5767,
      "blog": 5768,
      "year": 5769,
      "å¯": 5770,
      "Ġcre": 5771,
      "Ġcached": 5772,
      "Ġfl": 5773,
      "elf": 5774,
      "leton": 5775,
      "ĠOpen": 5776,
      "Ġprogress": 5777,
      "IDs": 5778,
      "bsol": 5779,
      "Filters": 5780,
      "ĠHTMLElement": 5781,
      "OperationResponse": 5782,
      "ierarchy": 5783,
      "Ġdelta": 5784,
      "=>{": 5785,
      "BO": 5786,
      "Eui": 5787,
      "Raw": 5788,
      "]{": 5789,
      "credentials": 5790,
      "publish": 5791,
      "qr": 5792,
      "uuid": 5793,
      "}-": 5794,
      "Ġca": 5795,
      "Ġcamera": 5796,
      "igr": 5797,
      "Ġchar": 5798,
      "Ġextra": 5799,
      "IDE": 5800,
      "phone": 5801,
      "Commands": 5802,
      "DbCluster": 5803,
      "customHeaders": 5804,
      "èİ·åıĸ": 5805,
      ",'": 5806,
      "312": 5807,
      "Rate": 5808,
      "slide": 5809,
      "()));": 5810,
      "apter": 5811,
      "veal": 5812,
      "ubble": 5813,
      "UserGuide": 5814,
      "firstChild": 5815,
      "Ġagent": 5816,
      "Exists": 5817,
      "Ġreferences": 5818,
      "ĠWITHOUT": 5819,
      "Copy": 5820,
      "Dim": 5821,
      "flash": 5822,
      "slider": 5823,
      "uded": 5824,
      "ê¸°": 5825,
      "ĠContext": 5826,
      "ionic": 5827,
      "urch": 5828,
      "Ġpixel": 5829,
      "fact": 5830,
      "verify": 5831,
      "Ġ\"âĨ": 5832,
      "Arguments": 5833,
      "Ġlistener": 5834,
      "Scal": 5835,
      "Ġworkspace": 5836,
      "EDIT": 5837,
      "tempt": 5838,
      "Variables": 5839,
      "è¯·": 5840,
      "Ġboard": 5841,
      "âĶĢ": 5842,
      "Ġapplicable": 5843,
      "Ġcompliance": 5844,
      "Opacity": 5845,
      "have": 5846,
      "large": 5847,
      "nb": 5848,
      "Ġ<>": 5849,
      "Ġhow": 5850,
      "mountain": 5851,
      "ONE": 5852,
      "ĠUsed": 5853,
      "listen": 5854,
      "Times": 5855,
      "Ġlat": 5856,
      "supported": 5857,
      "ĠtemplateUrl": 5858,
      "dispose": 5859,
      "SCloudFormation": 5860,
      "AWSCloudFormation": 5861,
      ".\"": 5862,
      "CS": 5863,
      "PAT": 5864,
      "xml": 5865,
      "è§": 5866,
      "Ġfoo": 5867,
      "Ġfeature": 5868,
      "Ġpi": 5869,
      "icip": 5870,
      "Insert": 5871,
      "readonly": 5872,
      "Ġcomponents": 5873,
      "000000": 5874,
      "projects": 5875,
      "Material": 5876,
      "ertificate": 5877,
      "Build": 5878,
      "PUT": 5879,
      "Warning": 5880,
      "bin": 5881,
      "called": 5882,
      "Ġmissing": 5883,
      "Inline": 5884,
      "Ġsequence": 5885,
      "ContentType": 5886,
      "}>{": 5887,
      "ĠstaticClass": 5888,
      "ĠKIND": 5889,
      "Entries": 5890,
      "generator": 5891,
      "æĪ·": 5892,
      "Ġwriting": 5893,
      "Dark": 5894,
      "NS": 5895,
      "_,": 5896,
      "bal": 5897,
      "ough": 5898,
      "·¸": 5899,
      "ľê": 5900,
      "rees": 5901,
      "ĠIm": 5902,
      "Ġ32": 5903,
      "Deep": 5904,
      "ĠGraph": 5905,
      "Many": 5906,
      "localhost": 5907,
      "Period": 5908,
      "uploads": 5909,
      "Ġassociated": 5910,
      "Ġexpression": 5911,
      "packages": 5912,
      "Ġoccurred": 5913,
      "æį®": 5914,
      "=}": 5915,
      "IX": 5916,
      "categories": 5917,
      "ood": 5918,
      "æŃ": 5919,
      "Ġquestion": 5920,
      "Ġsinon": 5921,
      "Ġbit": 5922,
      "Reader": 5923,
      "setting": 5924,
      "Ġreserved": 5925,
      "Ġsection": 5926,
      "Tokens": 5927,
      "childNodes": 5928,
      "Ġsocket": 5929,
      "ĠDelete": 5930,
      "rules": 5931,
      "ierarchical": 5932,
      "ĠmsRest": 5933,
      "ë©´": 5934,
      "ART": 5935,
      "Bed": 5936,
      "]))": 5937,
      "circle": 5938,
      "gacy": 5939,
      "safe": 5940,
      "Ġ99": 5941,
      "roid": 5942,
      "Ġforeground": 5943,
      "ship": 5944,
      "Ġshort": 5945,
      "Head": 5946,
      "Buttons": 5947,
      "Ġbytes": 5948,
      "Ġimplied": 5949,
      "ĠSets": 5950,
      "policy": 5951,
      "rypto": 5952,
      "CESS": 5953,
      "ĠTypeError": 5954,
      "Ġbounds": 5955,
      "Clo": 5956,
      "Dto": 5957,
      "Dispatch": 5958,
      "FE": 5959,
      "Oper": 5960,
      "au": 5961,
      "orth": 5962,
      "ism": 5963,
      "design": 5964,
      "Ġpossible": 5965,
      "Ġnavigation": 5966,
      "Star": 5967,
      "otes": 5968,
      "ĠPol": 5969,
      "actual": 5970,
      "Ġsepar": 5971,
      "Arcade": 5972,
      "ĠRequire": 5973,
      "Proxy": 5974,
      "ookup": 5975,
      "Once": 5976,
      "environment": 5977,
      "Ġprice": 5978,
      "ĠAccount": 5979,
      "crumb": 5980,
      "CI": 5981,
      "Svg": 5982,
      "dc": 5983,
      "ele": 5984,
      "èµ": 5985,
      "Ġenter": 5986,
      "ond": 5987,
      "repo": 5988,
      "ario": 5989,
      "laim": 5990,
      "andid": 5991,
      "resolvers": 5992,
      "erview": 5993,
      "Ġ():": 5994,
      "indic": 5995,
      "answ": 5996,
      "ĠRemove": 5997,
      "locity": 5998,
      "Anchor": 5999,
      "TOKEN": 6000,
      "emoji": 6001,
      "Metrics": 6002,
      "Binding": 6003,
      "Ġinvoked": 6004,
      "300": 6005,
      "Mapper": 6006,
      "NO": 6007,
      "Simple": 6008,
      "gu": 6009,
      "Ġfee": 6010,
      "ullable": 6011,
      "Ġsound": 6012,
      "ability": 6013,
      "dia": 6014,
      "ĠPath": 6015,
      "variant": 6016,
      "inte": 6017,
      "filters": 6018,
      "feature": 6019,
      "Ġupload": 6020,
      "åĲİ": 6021,
      "é¡µ": 6022,
      "[\\": 6023,
      "ares": 6024,
      "eep": 6025,
      "æİ": 6026,
      "Ġembed": 6027,
      "ones": 6028,
      "Ġpublish": 6029,
      "face": 6030,
      "Ġonce": 6031,
      "proxy": 6032,
      "usters": 6033,
      "Ġradius": 6034,
      "bool": 6035,
      "notation": 6036,
      "20180": 6037,
      "Ġspecify": 6038,
      "Topic": 6039,
      "(/\\": 6040,
      "åĪĨ": 6041,
      "Overlay": 6042,
      "serialize": 6043,
      "ĠLoDashExplicitObjectWrapper": 6044,
      "Ġwebpack": 6045,
      "Constructor": 6046,
      "ĠOrder": 6047,
      "cimal": 6048,
      "UpperCase": 6049,
      "ĠLayout": 6050,
      "LIN": 6051,
      "QU": 6052,
      "Volume": 6053,
      "sys": 6054,
      "çĲ": 6055,
      "Ġ))": 6056,
      "reet": 6057,
      "Ġcould": 6058,
      "Ġrep": 6059,
      "Ġdev": 6060,
      "Ġenum": 6061,
      "Ġappend": 6062,
      "Ġtests": 6063,
      "Ġ389": 6064,
      "ĠStack": 6065,
      "species": 6066,
      "ajor": 6067,
      "Ġimplementation": 6068,
      "fully": 6069,
      "ĠìŀĪ": 6070,
      "Avatar": 6071,
      ">`": 6072,
      "Driver": 6073,
      "NOT": 6074,
      "brid": 6075,
      "ef": 6076,
      "ua": 6077,
      "}'": 6078,
      "}),": 6079,
      "áº": 6080,
      "Ġuri": 6081,
      "Ġcookie": 6082,
      "utter": 6083,
      "--;": 6084,
      "ĠCommon": 6085,
      "bove": 6086,
      "2016": 6087,
      "Ġë³": 6088,
      "EmailQuery": 6089,
      "confirmEmailQuery": 6090,
      "Ġê²½": 6091,
      "Ġpair": 6092,
      "Ġverify": 6093,
      "Relation": 6094,
      "bsolute": 6095,
      "Ver": 6096,
      "Ġsync": 6097,
      "Ġseries": 6098,
      "toUpperCase": 6099,
      "ird": 6100,
      "shadow": 6101,
      "ĠIter": 6102,
      "Ġii": 6103,
      "Ġ</>": 6104,
      "Ġprofile": 6105,
      "ructure": 6106,
      "preview": 6107,
      "ĠDocDbdb": 6108,
      "Services": 6109,
      "reverse": 6110,
      "engine": 6111,
      "isRequired": 6112,
      "Ġcontact": 6113,
      "Ġsince": 6114,
      "Registry": 6115,
      "Ġtouch": 6116,
      "Ġhigh": 6117,
      "Dev": 6118,
      "Ġrgb": 6119,
      "Timestamp": 6120,
      "notOk": 6121,
      "cheme": 6122,
      "MAX": 6123,
      "ongoose": 6124,
      "Desde": 6125,
      "Ġminimum": 6126,
      "ĠProject": 6127,
      "dropdown": 6128,
      "Ġattrs": 6129,
      "ĠngOn": 6130,
      "subscriptionId": 6131,
      "(({": 6132,
      "BUT": 6133,
      "Calendar": 6134,
      "dout": 6135,
      "effect": 6136,
      "fish": 6137,
      "Ġmount": 6138,
      "Ġvariable": 6139,
      "pause": 6140,
      "coming": 6141,
      "ErrorMessage": 6142,
      "2014": 6143,
      "ĠparseFloat": 6144,
      "Subject": 6145,
      "interpol": 6146,
      "WYSIWYG": 6147,
      "Margin": 6148,
      "Navigation": 6149,
      "batch": 6150,
      "fx": 6151,
      "pad": 6152,
      "é¢": 6153,
      "ĺë¦¬": 6154,
      "lee": 6155,
      "that": 6156,
      "alt": 6157,
      "Replace": 6158,
      "omatic": 6159,
      "ĠSpec": 6160,
      "userId": 6161,
      "trace": 6162,
      "tsx": 6163,
      "Ġmov": 6164,
      "elements": 6165,
      "green": 6166,
      "<'": 6167,
      "Fee": 6168,
      "NU": 6169,
      "Pipe": 6170,
      "parser": 6171,
      "uck": 6172,
      "Ġ{}>": 6173,
      "Ġreader": 6174,
      "Ġredirect": 6175,
      "Ġpress": 6176,
      "Ġnative": 6177,
      "asure": 6178,
      "ĠĠĠĠĠĠĠĠĠĠĠĠĠĠĠĠĠĠĠĠĠĠĠĠ": 6179,
      "NodeType": 6180,
      "ĠFire": 6181,
      "Byte": 6182,
      "Paths": 6183,
      "uffle": 6184,
      "FFFF": 6185,
      "Ġlocale": 6186,
      "tags": 6187,
      "Ġoverflow": 6188,
      "atsby": 6189,
      "adient": 6190,
      "Ġimports": 6191,
      "Ġcoordin": 6192,
      "Flags": 6193,
      "Holder": 6194,
      "Word": 6195,
      "Ġloc": 6196,
      "Ġ{\"": 6197,
      "Ġpatch": 6198,
      "Ġcontract": 6199,
      "lict": 6200,
      "ĠMark": 6201,
      "Delay": 6202,
      "Ġjoin": 6203,
      "TreeNode": 6204,
      "evt": 6205,
      "Ġvisit": 6206,
      "Ġlookup": 6207,
      "Movie": 6208,
      "Normal": 6209,
      "aco": 6210,
      "cfg": 6211,
      "dlg": 6212,
      "ea": 6213,
      "multi": 6214,
      "sl": 6215,
      "Ã£": 6216,
      "æĢ": 6217,
      "Ġfeed": 6218,
      "Ġthese": 6219,
      "aper": 6220,
      "Ġint": 6221,
      "lies": 6222,
      "uple": 6223,
      "protocol": 6224,
      "Ġdefaults": 6225,
      "Ġlong": 6226,
      "Ġuint": 6227,
      "Ġinitialize": 6228,
      "Ġexecute": 6229,
      "expand": 6230,
      "Failure": 6231,
      "ĠBuilding": 6232,
      "velopment": 6233,
      "GeneratedFile": 6234,
      "Blur": 6235,
      "STR": 6236,
      "Watch": 6237,
      "ees": 6238,
      "lng": 6239,
      "non": 6240,
      "delay": 6241,
      "Ġ'\\\\": 6242,
      "Ġvia": 6243,
      "Ġconn": 6244,
      "continue": 6245,
      "ĠServer": 6246,
      "109": 6247,
      "READ": 6248,
      "note": 6249,
      "iaData": 6250,
      "Ġprevent": 6251,
      "æľī": 6252,
      "insic": 6253,
      "datat": 6254,
      "cestor": 6255,
      "Bo": 6256,
      "free": 6257,
      "gan": 6258,
      "pattern": 6259,
      "Ã§": 6260,
      "è¾": 6261,
      "ê³": 6262,
      "atient": 6263,
      "arator": 6264,
      "unity": 6265,
      "Ġrepo": 6266,
      "Ġpe": 6267,
      "ifec": 6268,
      "outer": 6269,
      "ĠGame": 6270,
      "Ġidentifier": 6271,
      "lower": 6272,
      "REE": 6273,
      "equals": 6274,
      "CommandOutput": 6275,
      "ĠEventEmitter": 6276,
      "Bounds": 6277,
      "ĠHeaders": 6278,
      "Environment": 6279,
      "ìľ¼": 6280,
      "Empire": 6281,
      "ifecycle": 6282,
      "Cover": 6283,
      "Vertical": 6284,
      "jo": 6285,
      "æĮ": 6286,
      "æĶ": 6287,
      "throws": 6288,
      "00000": 6289,
      "ĠĠĠĠĠĠĠĠĠĠĠĠĠĠĠĠĠĠĠĠ": 6290,
      "textContent": 6291,
      "provide": 6292,
      "Chunk": 6293,
      "collapse": 6294,
      "Application": 6295,
      "while": 6296,
      "ĠDefin": 6297,
      "Ġpartition": 6298,
      "movie": 6299,
      "Peptide": 6300,
      "Ġê²½ìļ°": 6301,
      "$('.": 6302,
      "åī": 6303,
      "íĻ": 6304,
      "uring": 6305,
      "Ins": 6306,
      "ĠTime": 6307,
      "Ġhook": 6308,
      "Ġstrings": 6309,
      "ĠAb": 6310,
      "Ġeffect": 6311,
      "ĠDo": 6312,
      "pawn": 6313,
      "pagin": 6314,
      "readcrumb": 6315,
      "ĠreadGeneratedFile": 6316,
      "/*.": 6317,
      "times": 6318,
      "witter": 6319,
      "ATOR": 6320,
      "EditingArea": 6321,
      "interopRequire": 6322,
      "íĬ¸": 6323,
      "Clear": 6324,
      "Flex": 6325,
      "Hand": 6326,
      "Literal": 6327,
      "blank": 6328,
      "aries": 6329,
      "Ġpivot": 6330,
      "Ġsap": 6331,
      "ĠAd": 6332,
      "ĠBA": 6333,
      "Ġì²": 6334,
      "Ġ\"âª": 6335,
      "Ġcurrency": 6336,
      "maining": 6337,
      "Ġworker": 6338,
      "Factor": 6339,
      "Ġperiods": 6340,
      "Lat": 6341,
      "TON": 6342,
      "aff": 6343,
      "xx": 6344,
      "åį": 6345,
      "relative": 6346,
      "Ġ\"\")": 6347,
      "///": 6348,
      "illed": 6349,
      "external": 6350,
      "Invoice": 6351,
      "Ġ[...": 6352,
      "={'": 6353,
      "Ġbegin": 6354,
      "commit": 6355,
      "posed": 6356,
      "Ġyield": 6357,
      "Ġbyte": 6358,
      "ScaleNumber": 6359,
      "Ġgroups": 6360,
      "Ġlinks": 6361,
      "While": 6362,
      "Directory": 6363,
      "âĶĢâĶĢ": 6364,
      "%',": 6365,
      "Alexa": 6366,
      "PC": 6367,
      "Plural": 6368,
      "TValue": 6369,
      "hip": 6370,
      "tion": 6371,
      "writ": 6372,
      "Ġutil": 6373,
      "iti": 6374,
      "ital": 6375,
      "Ġ\"-": 6376,
      "identifier": 6377,
      "Ġsimple": 6378,
      "otos": 6379,
      "Ġ$('": 6380,
      "appings": 6381,
      "Listeners": 6382,
      "mbda": 6383,
      "Modules": 6384,
      "Ġtranslate": 6385,
      "Ġfilters": 6386,
      "customer": 6387,
      "Ġoperations": 6388,
      "ĠImage": 6389,
      "Database": 6390,
      "LD": 6391,
      "cross": 6392,
      "oParent": 6393,
      "½®": 6394,
      "Ġes": 6395,
      "Ġagre": 6396,
      "Ġpt": 6397,
      "iling": 6398,
      "ummy": 6399,
      "Inte": 6400,
      "rase": 6401,
      "argv": 6402,
      "anger": 6403,
      "Ġya": 6404,
      "FileName": 6405,
      "Ġalways": 6406,
      "Ġcurrently": 6407,
      "signed": 6408,
      "medium": 6409,
      "Popup": 6410,
      ";\">{": 6411,
      ">\";": 6412,
      "MIN": 6413,
      "nest": 6414,
      "sec": 6415,
      "Ġsolid": 6416,
      "Ġinside": 6417,
      "Ġ255": 6418,
      "ĠAt": 6419,
      "until": 6420,
      "ĠModel": 6421,
      "agination": 6422,
      "available": 6423,
      "ĠtextStatus": 6424,
      "ifiers": 6425,
      "words": 6426,
      "Ġ'../../../../": 6427,
      "Symbols": 6428,
      "Payload": 6429,
      "Ġenumerable": 6430,
      "Ġagreed": 6431,
      "Missing": 6432,
      "Private": 6433,
      "Schemas": 6434,
      "sdk": 6435,
      "ë§": 6436,
      "stats": 6437,
      "orrow": 6438,
      "Ġ'+": 6439,
      "gel": 6440,
      "ados": 6441,
      "StrictEqual": 6442,
      "ĠPage": 6443,
      "questions": 6444,
      "Ġextract": 6445,
      "Ġround": 6446,
      "Unique": 6447,
      "ĠInc": 6448,
      "begin": 6449,
      "BlockList": 6450,
      "market": 6451,
      "Tasks": 6452,
      "Ġlaw": 6453,
      "Hub": 6454,
      "Master": 6455,
      "Pass": 6456,
      "éĻ": 6457,
      "ĠResource": 6458,
      "thes": 6459,
      "Ġcfg": 6460,
      "Ġreact": 6461,
      "Ġtimer": 6462,
      "uplic": 6463,
      "Ġ36": 6464,
      "filePath": 6465,
      "ĠGe": 6466,
      "ĠfileName": 6467,
      "mbers": 6468,
      "Ġtimestamp": 6469,
      "attrs": 6470,
      "SIS": 6471,
      "Ġrunning": 6472,
      "ĠconvertSet": 6473,
      "thumbs": 6474,
      "activate": 6475,
      "ĠJSX": 6476,
      "ĠMethod": 6477,
      "]],": 6478,
      "navigate": 6479,
      "Ġcert": 6480,
      "Ġcross": 6481,
      "deploy": 6482,
      "lots": 6483,
      "ĠoSelection": 6484,
      "ĠPr": 6485,
      "ĠOut": 6486,
      "updated": 6487,
      "(`/": 6488,
      "Ġapplication": 6489,
      "buttons": 6490,
      "playlist": 6491,
      "å®ļ": 6492,
      "isNaN": 6493,
      "Ġgoverning": 6494,
      "Css": 6495,
      "cision": 6496,
      "tics": 6497,
      "uit": 6498,
      "zer": 6499,
      "éĿ": 6500,
      "oned": 6501,
      "detail": 6502,
      "esModule": 6503,
      "Ġabove": 6504,
      "convert": 6505,
      "Ġhelp": 6506,
      "ints": 6507,
      "__)": 6508,
      "TextNode": 6509,
      "icky": 6510,
      "Ġattach": 6511,
      "20170": 6512,
      "Ġzero": 6513,
      "tokens": 6514,
      "DITIONS": 6515,
      "tabs": 6516,
      "ĠBASIS": 6517,
      "Wrap": 6518,
      "cer": 6519,
      "ctrl": 6520,
      "Ġcmd": 6521,
      "unce": 6522,
      "exit": 6523,
      "Ġspeed": 6524,
      "Stub": 6525,
      "endpoint": 6526,
      "pare": 6527,
      "SSAGE": 6528,
      "Subscription": 6529,
      "Ġ387": 6530,
      "USER": 6531,
      "ĠCONDITIONS": 6532,
      "IRInlined": 6533,
      "\"},": 6534,
      "ha": 6535,
      "land": 6536,
      "mar": 6537,
      "orph": 6538,
      "Ġpspec": 6539,
      "Ġstats": 6540,
      "extends": 6541,
      "ĠSource": 6542,
      "ĠCard": 6543,
      "trinsic": 6544,
      "ĠMin": 6545,
      "ĠBack": 6546,
      "fileName": 6547,
      "Ġxhr": 6548,
      "Allow": 6549,
      "Trigger": 6550,
      "anced": 6551,
      "Ġmodules": 6552,
      "Ġsorted": 6553,
      "Ġlimitations": 6554,
      "Ġobserve": 6555,
      "ĠToken": 6556,
      "\"./": 6557,
      "GIN": 6558,
      "QE": 6559,
      "]}": 6560,
      "balance": 6561,
      "rs": 6562,
      "sin": 6563,
      "timer": 6564,
      "æ³": 6565,
      "atre": 6566,
      "alias": 6567,
      "ents": 6568,
      "Ġperson": 6569,
      "utions": 6570,
      "elNode": 6571,
      "')(": 6572,
      "ĠĠĠĠĠĠĠĠĠĠĠĠĠĠĠĠĠĠĠĠĠĠĠĠĠĠĠĠĠĠĠĠĠĠĠĠĠĠĠĠĠĠĠĠĠĠĠ": 6573,
      "moment": 6574,
      "verage": 6575,
      "compile": 6576,
      "Ġrequests": 6577,
      "ĠLoad": 6578,
      "Accordion": 6579,
      "portedPeptide": 6580,
      "Sprite": 6581,
      "ĠEnt": 6582,
      "$/,": 6583,
      "Ġseconds": 6584,
      "Ġautomatic": 6585,
      "piece": 6586,
      "Gre": 6587,
      "score": 6588,
      "Ġĉ": 6589,
      "Ġed": 6590,
      "enes": 6591,
      "ically": 6592,
      "Ġvirtual": 6593,
      "raft": 6594,
      "Ġresolved": 6595,
      "ityName": 6596,
      "Ġexternal": 6597,
      "scriptions": 6598,
      "readFileSync": 6599,
      "Leave": 6600,
      "currency": 6601,
      "Labels": 6602,
      "Clone": 6603,
      "what": 6604,
      "matches": 6605,
      "Signal": 6606,
      "æķ°æį®": 6607,
      "alytics": 6608,
      "Ã£o": 6609,
      "Final": 6610,
      "LL": 6611,
      "Pending": 6612,
      "ium": 6613,
      "lon": 6614,
      "pin": 6615,
      "wap": 6616,
      "detect": 6617,
      "coin": 6618,
      "={`": 6619,
      "ĠBE": 6620,
      "Ġcharacter": 6621,
      "paths": 6622,
      "20160": 6623,
      "ĠresponseBody": 6624,
      "Units": 6625,
      "ENV": 6626,
      "ĠlabelPlural": 6627,
      "parseInt": 6628,
      "Preview": 6629,
      "Previous": 6630,
      "Ġallowed": 6631,
      "Ġabout": 6632,
      "destination": 6633,
      "parsedErrorResponse": 6634,
      "contains": 6635,
      ">|": 6636,
      "DA": 6637,
      "Hide": 6638,
      "Machine": 6639,
      "NODE": 6640,
      "clean": 6641,
      "Ġcar": 6642,
      "Ġfake": 6643,
      "urname": 6644,
      "Ġwatch": 6645,
      "quiv": 6646,
      "Ġmember": 6647,
      "ĠBig": 6648,
      "Ġouter": 6649,
      "Ġ2020": 6650,
      "olders": 6651,
      "ACTION": 6652,
      "Download": 6653,
      "ĠUnless": 6654,
      "Scheduled": 6655,
      "!./": 6656,
      ".,": 6657,
      "Fire": 6658,
      "Hex": 6659,
      "nhn": 6660,
      "erve": 6661,
      "unded": 6662,
      "Ġast": 6663,
      "about": 6664,
      "Reply": 6665,
      "Console": 6666,
      "imize": 6667,
      "ĠEX": 6668,
      "Proto": 6669,
      "country": 6670,
      "ĠInject": 6671,
      "ìĿ¸": 6672,
      "Ġtokens": 6673,
      "Percent": 6674,
      "COMP": 6675,
      "Decorator": 6676,
      "ĠWhen": 6677,
      "Paragraph": 6678,
      "BUTTON": 6679,
      "ITE": 6680,
      "zure": 6681,
      "ĠStyle": 6682,
      "Ġ');": 6683,
      "expanded": 6684,
      "uting": 6685,
      "rain": 6686,
      "Ġdeleted": 6687,
      "ĠRef": 6688,
      "Ġprogram": 6689,
      "training": 6690,
      "ĠcontentType": 6691,
      "Ġgenerated": 6692,
      "dashboard": 6693,
      "+'/": 6694,
      "Bounding": 6695,
      "ĠrouterLink": 6696,
      "ĠSerializer": 6697,
      "SD": 6698,
      "camera": 6699,
      "esome": 6700,
      "course": 6701,
      "Ġwallet": 6702,
      "Ġ800": 6703,
      "baseline": 6704,
      "ĠLogger": 6705,
      "periment": 6706,
      "Ġwarnings": 6707,
      "Draw": 6708,
      "Find": 6709,
      "IST": 6710,
      "navigation": 6711,
      "yy": 6712,
      "ç¬": 6713,
      "deprecated": 6714,
      "Ġpad": 6715,
      "Ġpresent": 6716,
      "Ġmail": 6717,
      "Ġ199": 6718,
      "like": 6719,
      "fast": 6720,
      "Ġelem": 6721,
      "ĠPass": 6722,
      "ĠPlugin": 6723,
      "useState": 6724,
      "pected": 6725,
      "mostat": 6726,
      "ĠGrid": 6727,
      "Ġ>>": 6728,
      "\">'": 6729,
      "clus": 6730,
      "mong": 6731,
      "STAT": 6732,
      "webview": 6733,
      "}/${": 6734,
      "================================================================": 6735,
      "å½ķ": 6736,
      "Ġcomments": 6737,
      "CO": 6738,
      "Feed": 6739,
      "Multi": 6740,
      "OK": 6741,
      "bold": 6742,
      "Ġest": 6743,
      "Ġê°": 6744,
      "reload": 6745,
      "stub": 6746,
      "origin": 6747,
      "mem": 6748,
      "chai": 6749,
      "Ġwin": 6750,
      "lier": 6751,
      "ĠPoint": 6752,
      "ĠĠĠĠĠĠĠĠĠĠĠĠĠĠĠĠĠĠ": 6753,
      "ithm": 6754,
      "poch": 6755,
      "pool": 6756,
      "ills": 6757,
      "Ġjob": 6758,
      "viewer": 6759,
      "ä¸į": 6760,
      "Clicked": 6761,
      "íķ´": 6762,
      "ĠresourceGroupName": 6763,
      "Ġmaterial": 6764,
      "Ġcontaining": 6765,
      "Ready": 6766,
      "çĶ¨æĪ·": 6767,
      "OWN": 6768,
      "å·²": 6769,
      "speciesmap": 6770,
      "Ġ{}>(": 6771,
      ":',": 6772,
      "CA": 6773,
      "Categories": 6774,
      "OB": 6775,
      "PP": 6776,
      "Summary": 6777,
      "XX": 6778,
      "Īĺ": 6779,
      "reason": 6780,
      "rott": 6781,
      "Ġ'{": 6782,
      "Ġ\"'": 6783,
      "Ġpiece": 6784,
      "Ġdriver": 6785,
      "eting": 6786,
      "Ġ215": 6787,
      "izard": 6788,
      "ffic": 6789,
      "Art": 6790,
      "Strings": 6791,
      "GLE": 6792,
      "Ġengine": 6793,
      "ucers": 6794,
      "20130": 6795,
      "objects": 6796,
      "Ġless": 6797,
      "timestamp": 6798,
      "Ġcomputed": 6799,
      "Ġíĥ": 6800,
      "Ġ\"../../../": 6801,
      "VALUE": 6802,
      "rgba": 6803,
      "Ġtooltip": 6804,
      "Geo": 6805,
      "agnostics": 6806,
      "ĠRequired": 6807,
      "Classes": 6808,
      "Push": 6809,
      "\\`": 6810,
      "rr": 6811,
      "è¦": 6812,
      "interfaces": 6813,
      "ality": 6814,
      "isEmpty": 6815,
      "Ġajax": 6816,
      "Ġvue": 6817,
      "Ġdt": 6818,
      "Ġwould": 6819,
      "Ġdestroy": 6820,
      "ership": 6821,
      "ĠAR": 6822,
      "Ġrandom": 6823,
      "mine": 6824,
      "contents": 6825,
      "uding": 6826,
      "Ġsubject": 6827,
      "swers": 6828,
      "backgroundColor": 6829,
      "ĠAccept": 6830,
      "memberOf": 6831,
      "HOW": 6832,
      "ëıĦ": 6833,
      "interopRequireDefault": 6834,
      "!:": 6835,
      "PH": 6836,
      "PORT": 6837,
      "Random": 6838,
      "cp": 6839,
      "eded": 6840,
      "ores": 6841,
      "tures": 6842,
      "ons": 6843,
      "Ġflash": 6844,
      "Ġ*=": 6845,
      "Ġplatform": 6846,
      "aged": 6847,
      "odos": 6848,
      "finity": 6849,
      "Ġangle": 6850,
      "___": 6851,
      "Ġshadow": 6852,
      "Heading": 6853,
      "Ġ\"âĩ": 6854,
      "']\"": 6855,
      "ĠConnection": 6856,
      "mediate": 6857,
      "Indic": 6858,
      "StyledComponent": 6859,
      "/.": 6860,
      "Member": 6861,
      "Nested": 6862,
      "cli": 6863,
      "lations": 6864,
      "èĩ": 6865,
      "alle": 6866,
      "anim": 6867,
      "ceeded": 6868,
      "Ġhighlight": 6869,
      "ĠPIX": 6870,
      "appServicePlan": 6871,
      "ourse": 6872,
      "Ġangular": 6873,
      "Resizing": 6874,
      "Ġyear": 6875,
      "Ġextend": 6876,
      "Ġalias": 6877,
      "Ġroutes": 6878,
      "Layers": 6879,
      "Transfer": 6880,
      "findOne": 6881,
      "photo": 6882,
      "ongo": 6883,
      "Ġvalidator": 6884,
      "byte": 6885,
      "Partition": 6886,
      "Extensions": 6887,
      "manager": 6888,
      "TYP": 6889,
      "Ġcorrespon": 6890,
      "Ġindices": 6891,
      "Ġdirectly": 6892,
      "enticated": 6893,
      "Ġproducts": 6894,
      "]=\"['": 6895,
      "ĠrouterLinkActive": 6896,
      "812": 6897,
      "Middleware": 6898,
      "Owner": 6899,
      "iet": 6900,
      "rd": 6901,
      "slug": 6902,
      "Ã¼": 6903,
      "igits": 6904,
      "Ġ150": 6905,
      "amb": 6906,
      "liner": 6907,
      "short": 6908,
      "mobile": 6909,
      "scrib": 6910,
      "agation": 6911,
      "Ġbelow": 6912,
      "Ġensure": 6913,
      "Ġ80": 6914,
      "groups": 6915,
      "framework": 6916,
      "Ġnever": 6917,
      "FORM": 6918,
      "Ġcorrectly": 6919,
      "Decoration": 6920,
      "Ġsmalltalk": 6921,
      "ĠìĤ¬": 6922,
      "Go": 6923,
      "Ms": 6924,
      "Self": 6925,
      "cfn": 6926,
      "ral": 6927,
      "ĠControl": 6928,
      "sect": 6929,
      "Ġ'${": 6930,
      "ifact": 6931,
      "Ġinner": 6932,
      "ĠParameters": 6933,
      "outube": 6934,
      "fff": 6935,
      "ĠLIC": 6936,
      "providers": 6937,
      "ĠOptions": 6938,
      "Ġìĺ": 6939,
      "Ancestor": 6940,
      "ĠuserId": 6941,
      "Compare": 6942,
      "ĠdisplayName": 6943,
      "single": 6944,
      "swf": 6945,
      "Ġabstract": 6946,
      "Ġneeds": 6947,
      "columns": 6948,
      "celer": 6949,
      "scriptor": 6950,
      "ousel": 6951,
      "Ġevt": 6952,
      "gnore": 6953,
      "nippet": 6954,
      "]=\"['/": 6955,
      "Flow": 6956,
      "PS": 6957,
      "Speed": 6958,
      "gor": 6959,
      "hot": 6960,
      "¾ç": 6961,
      "å¾": 6962,
      "inherit": 6963,
      "toThrow": 6964,
      "ilest": 6965,
      "andbox": 6966,
      "Ġexact": 6967,
      "Ġgoogle": 6968,
      "loaders": 6969,
      "ĠGroup": 6970,
      "Ġids": 6971,
      "ĠNew": 6972,
      "startsWith": 6973,
      "Ġarrays": 6974,
      "Mobile": 6975,
      "innerText": 6976,
      "normalize": 6977,
      "Thrown": 6978,
      "Flag": 6979,
      "brightness": 6980,
      "house": 6981,
      "navigator": 6982,
      "simple": 6983,
      "Ã³": 6984,
      "åĢ": 6985,
      "Ġ{?": 6986,
      "Ġcc": 6987,
      "Ġfolder": 6988,
      "Ġflags": 6989,
      "chron": 6990,
      "Ġcontrib": 6991,
      "quote": 6992,
      "toFixed": 6993,
      "trics": 6994,
      "Ġsegment": 6995,
      "ĠBe": 6996,
      "Webhook": 6997,
      "THER": 6998,
      "thumbnail": 6999,
      "åĬł": 7000,
      "Ġbinding": 7001,
      "Ġboth": 7002,
      "ëĲĺ": 7003,
      "ĠTHREE": 7004,
      "ĠLICENSE": 7005,
      "=\\\"": 7006,
      "AUT": 7007,
      "JEC": 7008,
      "Round": 7009,
      "due": 7010,
      "gable": 7011,
      "glyph": 7012,
      "hour": 7013,
      "ping": 7014,
      "ybrid": 7015,
      "enum": 7016,
      "Ġway": 7017,
      "ĠSup": 7018,
      "namespace": 7019,
      "ĠMake": 7020,
      "ĠElastic": 7021,
      "ĠBy": 7022,
      "Program": 7023,
      "ĠRange": 7024,
      "Quote": 7025,
      "nextSibling": 7026,
      "Logs": 7027,
      "CommandInput": 7028,
      "ĠConst": 7029,
      "Ġcoords": 7030,
      "days": 7031,
      "Ġ\"_:": 7032,
      "ĠSoftware": 7033,
      "ĠPIXI": 7034,
      "Assert": 7035,
      "FIG": 7036,
      "OF": 7037,
      "follow": 7038,
      "todo": 7039,
      "ìĬ¤": 7040,
      "unique": 7041,
      "Ġpick": 7042,
      "Ġns": 7043,
      "peech": 7044,
      "identity": 7045,
      "Ġsum": 7046,
      "Ġinternal": 7047,
      "odb": 7048,
      "ĠST": 7049,
      "ĠSchema": 7050,
      "ToProps": 7051,
      "found": 7052,
      "nodeType": 7053,
      "Ġextensions": 7054,
      "20140": 7055,
      "ACE": 7056,
      "ĠUsers": 7057,
      "\"].": 7058,
      "Car": 7059,
      "CCESS": 7060,
      "False": 7061,
      "Flash": 7062,
      "GER": 7063,
      "XY": 7064,
      "rand": 7065,
      "rong": 7066,
      "tor": 7067,
      "íĥ": 7068,
      "Ġ75": 7069,
      "rec": 7070,
      "cture": 7071,
      "Ġ'%": 7072,
      "Ġ***": 7073,
      "getId": 7074,
      "extra": 7075,
      "ĠScal": 7076,
      "Ġproblem": 7077,
      "ĠNav": 7078,
      "TextField": 7079,
      "Testing": 7080,
      "Ġpermission": 7081,
      "where": 7082,
      "poly": 7083,
      "Ġcurr": 7084,
      "Describe": 7085,
      ":[": 7086,
      "??": 7087,
      "Please": 7088,
      "Platform": 7089,
      "RU": 7090,
      "Wait": 7091,
      "builder": 7092,
      "every": 7093,
      "ho": 7094,
      "xs": 7095,
      "ygel": 7096,
      "Ġhe": 7097,
      "regex": 7098,
      "Ġflag": 7099,
      "asing": 7100,
      "ropBox": 7101,
      "lementation": 7102,
      "ynchron": 7103,
      "Ġprod": 7104,
      "ĠassertTabs": 7105,
      "Inputs": 7106,
      "Ġapplied": 7107,
      "Orders": 7108,
      "166": 7109,
      "Ġcompare": 7110,
      "Ġstarted": 7111,
      "ĠProduct": 7112,
      "Ġcommands": 7113,
      "########": 7114,
      "ĠEntity": 7115,
      "ygelCore": 7116,
      "!');": 7117,
      "SHOW": 7118,
      "big": 7119,
      "javascript": 7120,
      "wD": 7121,
      "Ġ\"\\": 7122,
      "under": 7123,
      "Ġpx": 7124,
      "uest": 7125,
      "iframe": 7126,
      "chool": 7127,
      "getSingle": 7128,
      "ĠSuccess": 7129,
      "ĠĠĠĠĠĠĠĠĠĠĠĠĠĠĠĠĠĠĠĠĠĠĠĠĠĠĠĠĠĠĠĠĠĠĠĠĠĠĠĠĠĠĠĠĠĠĠĠĠĠĠ": 7130,
      "Secret": 7131,
      "forms": 7132,
      "sound": 7133,
      "Ġ44": 7134,
      "Setter": 7135,
      "188": 7136,
      "Ġkeep": 7137,
      "Ġaccept": 7138,
      "areEqual": 7139,
      "videos": 7140,
      "Routes": 7141,
      "FFER": 7142,
      "graphql": 7143,
      "LASS": 7144,
      "Constants": 7145,
      "Ġproper": 7146,
      "isposables": 7147,
      "Media": 7148,
      "avaScript": 7149,
      "nbsp": 7150,
      "Branch": 7151,
      "Camera": 7152,
      "COUNT": 7153,
      "Gateway": 7154,
      "Put": 7155,
      "SA": 7156,
      "gt": 7157,
      "pri": 7158,
      "pick": 7159,
      "|\\": 7160,
      "roles": 7161,
      "Ġ(\"": 7162,
      "Ġtyp": 7163,
      "Ġsvg": 7164,
      "()[": 7165,
      "riend": 7166,
      "Ġdetermin": 7167,
      "Ġeven": 7168,
      "quee": 7169,
      "layers": 7170,
      "aving": 7171,
      "mapped": 7172,
      "labels": 7173,
      "asket": 7174,
      "MESSAGE": 7175,
      "clients": 7176,
      "ongs": 7177,
      "verted": 7178,
      "ĠConstruct": 7179,
      "Ġbuttons": 7180,
      "())._": 7181,
      "Accounts": 7182,
      "ĠCreateStyledComponent": 7183,
      "Processor": 7184,
      "legend": 7185,
      "Seconds": 7186,
      "ĠìķĬ": 7187,
      "andidate": 7188,
      "BACK": 7189,
      "Ele": 7190,
      "Lang": 7191,
      "Lookup": 7192,
      "bc": 7193,
      "baz": 7194,
      "wall": 7195,
      "ĠStart": 7196,
      "story": 7197,
      "encoding": 7198,
      "sequence": 7199,
      "itch": 7200,
      "Ġrelated": 7201,
      "inger": 7202,
      "uture": 7203,
      "Ġdot": 7204,
      "absol": 7205,
      "oday": 7206,
      "asmine": 7207,
      "Ġdef": 7208,
      "Ġdetect": 7209,
      "dim": 7210,
      "ĠSp": 7211,
      "Ġ33": 7212,
      ")):": 7213,
      "ĠNext": 7214,
      "Management": 7215,
      "ĠbaseUrl": 7216,
      "getElementsBy": 7217,
      "åı¯": 7218,
      "partition": 7219,
      "support": 7220,
      "channels": 7221,
      "connected": 7222,
      "Creator": 7223,
      "________________": 7224,
      "UiFormResGridLast": 7225,
      "nestjs": 7226,
      "absolute": 7227,
      ")\"": 7228,
      "/@": 7229,
      "875": 7230,
      "Bg": 7231,
      "FO": 7232,
      "Join": 7233,
      "npm": 7234,
      "pulumi": 7235,
      "¬ë": 7236,
      "ĥ½": 7237,
      "ķĮ": 7238,
      "real": 7239,
      "repeat": 7240,
      "star": 7241,
      "Ġnested": 7242,
      "ifError": 7243,
      "asc": 7244,
      "Ġexit": 7245,
      "ĠMaybe": 7246,
      "Resources": 7247,
      "Chat": 7248,
      "Ġmemo": 7249,
      "Ġnote": 7250,
      "ĠassertNodeType": 7251,
      "Ġxs": 7252,
      "udo": 7253,
      "rootScope": 7254,
      "Aggreg": 7255,
      "Ġcounter": 7256,
      "BUG": 7257,
      "expression": 7258,
      "AWS": 7259,
      "Elem": 7260,
      "Numbers": 7261,
      "PR": 7262,
      "Persist": 7263,
      "gray": 7264,
      "horizontal": 7265,
      "vl": 7266,
      "íĦ": 7267,
      "Ĳì": 7268,
      "erter": 7269,
      "aring": 7270,
      "Ġ')": 7271,
      "urable": 7272,
      "Ġaws": 7273,
      "Ġvertical": 7274,
      "Ġwere": 7275,
      "Rep": 7276,
      "ĠTE": 7277,
      "ĠApi": 7278,
      "'){": 7279,
      "({});": 7280,
      "ĠMenu": 7281,
      "ĠINT": 7282,
      "ĠWhether": 7283,
      "Validator": 7284,
      "SION": 7285,
      "Ġstored": 7286,
      "manifest": 7287,
      "rides": 7288,
      "ĠValidation": 7289,
      "Ġrotate": 7290,
      "è½½": 7291,
      "trieve": 7292,
      "ĠDiscord": 7293,
      "/,": 7294,
      "84375": 7295,
      "Long": 7296,
      "Opts": 7297,
      "]));": 7298,
      "blur": 7299,
      "ditions": 7300,
      "Ŀ¼": 7301,
      "isUndefined": 7302,
      "Ġneeded": 7303,
      "Ġvideo": 7304,
      "Ġ180": 7305,
      "usiness": 7306,
      "Recent": 7307,
      "Ġhover": 7308,
      "=\"'": 7309,
      "ĠGran": 7310,
      "ively": 7311,
      "ĠRow": 7312,
      "180": 7313,
      ".$$.": 7314,
      "Ġstarting": 7315,
      "Than": 7316,
      "calls": 7317,
      "Ranges": 7318,
      "ĠStatic": 7319,
      "partial": 7320,
      "pendency": 7321,
      "velope": 7322,
      "Ġhostname": 7323,
      "ĠspyOn": 7324,
      "/',": 7325,
      "Pointer": 7326,
      "QUE": 7327,
      "Some": 7328,
      "ba": 7329,
      "eth": 7330,
      "iO": 7331,
      "lision": 7332,
      "zana": 7333,
      "¸\",": 7334,
      "reg": 7335,
      "Ġ(($": 7336,
      "look": 7337,
      "ĠTSource": 7338,
      "Ġdeep": 7339,
      "istic": 7340,
      "Ġ214": 7341,
      "Ġ$[": 7342,
      "constant": 7343,
      "ponsive": 7344,
      "ĠImp": 7345,
      "divisionName": 7346,
      "Ġrpc": 7347,
      "Ġ'@/": 7348,
      "Providers": 7349,
      "team": 7350,
      "ĠVue": 7351,
      "Assets": 7352,
      "UTC": 7353,
      "ROOT": 7354,
      "Ġparts": 7355,
      "Ġdays": 7356,
      "ĠManzana": 7357,
      "Ax": 7358,
      "Bit": 7359,
      "Hot": 7360,
      "Pub": 7361,
      "Pixel": 7362,
      "PURE": 7363,
      "ault": 7364,
      "aign": 7365,
      "mid": 7366,
      "mus": 7367,
      "¤º": 7368,
      "Ã¡": 7369,
      "Ġedge": 7370,
      "Ġuntil": 7371,
      "anit": 7372,
      "Ġfragment": 7373,
      "Ġ\"%": 7374,
      "Ġavoid": 7375,
      "Ġaxis": 7376,
      "Ġsystem": 7377,
      "riction": 7378,
      "Intrinsic": 7379,
      "RegExp": 7380,
      "ĠnewValue": 7381,
      "ĠModal": 7382,
      "ĠGoogle": 7383,
      "tests": 7384,
      "Until": 7385,
      "Ġlinear": 7386,
      "ScaleString": 7387,
      "projectId": 7388,
      "åĪ°": 7389,
      "Palette": 7390,
      "Print": 7391,
      "install": 7392,
      "BUFFER": 7393,
      "Ġdeserialized": 7394,
      "Assignment": 7395,
      "Fill": 7396,
      "Navigator": 7397,
      "Opt": 7398,
      "UST": 7399,
      "bd": 7400,
      "lor": 7401,
      "rate": 7402,
      "tuple": 7403,
      "arms": 7404,
      "allen": 7405,
      "Ġinherit": 7406,
      "Inventory": 7407,
      "ultis": 7408,
      "Condition": 7409,
      "....": 7410,
      "ĠSO": 7411,
      "ĠPlease": 7412,
      "ĠCur": 7413,
      "keyCode": 7414,
      "ĠHome": 7415,
      "ĠerrorThrown": 7416,
      "Ġìĥ": 7417,
      "Transactions": 7418,
      "ĠInitial": 7419,
      "Threshold": 7420,
      "65625": 7421,
      "Ġ/*#": 7422,
      "Ġusage": 7423,
      "CustomBatch": 7424,
      "æĪĲ": 7425,
      "fixed": 7426,
      "ĠHeader": 7427,
      "answer": 7428,
      "None": 7429,
      "SVG": 7430,
      "VIE": 7431,
      "dArray": 7432,
      "was": 7433,
      "~~": 7434,
      "å¹": 7435,
      "æĭ": 7436,
      "ĠConfiguration": 7437,
      "related": 7438,
      "isTrue": 7439,
      "Ġ\"\");": 7440,
      "Ġrepeat": 7441,
      "Ġstat": 7442,
      "lize": 7443,
      "endor": 7444,
      "Ġ212": 7445,
      "izable": 7446,
      "ĠCor": 7447,
      "Ġguild": 7448,
      "cessary": 7449,
      "ListItem": 7450,
      "compute": 7451,
      "listener": 7452,
      "ĠRed": 7453,
      "Should": 7454,
      "Ġlabels": 7455,
      "removeChild": 7456,
      "Ġiterable": 7457,
      "moves": 7458,
      "afari": 7459,
      "remote": 7460,
      "directive": 7461,
      "rotation": 7462,
      "ousand": 7463,
      "å¼ı": 7464,
      "fadeOut": 7465,
      "Alias": 7466,
      "Ġì²ĺë¦¬": 7467,
      "(--": 7468,
      "Either": 7469,
      "Features": 7470,
      "GN": 7471,
      "Natural": 7472,
      "Tri": 7473,
      "air": 7474,
      "cached": 7475,
      "Ġcop": 7476,
      "des": 7477,
      "***": 7478,
      "Ġdeploy": 7479,
      "ĠgetBy": 7480,
      "Ġ})}": 7481,
      "aking": 7482,
      "ĠHandle": 7483,
      "Attach": 7484,
      "Original": 7485,
      "calendar": 7486,
      "heading": 7487,
      "Force": 7488,
      "Currency": 7489,
      "ĠoptionalCallback": 7490,
      "ìłķ": 7491,
      "äºĨ": 7492,
      "âĢĻ": 7493,
      "Ġreduce": 7494,
      "factory": 7495,
      "STATUS": 7496,
      "ĠCreateStyledComponentIntrinsic": 7497,
      "Loop": 7498,
      "Observer": 7499,
      "Public": 7500,
      "WS": 7501,
      "hi": 7502,
      "lator": 7503,
      "week": 7504,
      "Ġim": 7505,
      "onload": 7506,
      "repository": 7507,
      "unic": 7508,
      "Ġschedule": 7509,
      "cos": 7510,
      "raction": 7511,
      "ĠTag": 7512,
      "ĠAs": 7513,
      "ĠPS": 7514,
      "Ġ`;": 7515,
      "Ġ/>;": 7516,
      "Ġxml": 7517,
      "Shadow": 7518,
      "clientId": 7519,
      "ometer": 7520,
      "overlay": 7521,
      "Ġsubscription": 7522,
      "Modifier": 7523,
      "triev": 7524,
      "globals": 7525,
      "popup": 7526,
      "ĠChecks": 7527,
      "fadeIn": 7528,
      "ĠGraphQL": 7529,
      "è¦ģ": 7530,
      "\"])": 7531,
      "CfnBucket": 7532,
      "FR": 7533,
      "Radio": 7534,
      "bf": 7535,
      "cwd": 7536,
      "pub": 7537,
      "ĠContainer": 7538,
      "Ł¥": 7539,
      "atis": 7540,
      "Ġnhn": 7541,
      "Ġdark": 7542,
      "getAll": 7543,
      "resp": 7544,
      "Ġ213": 7545,
      "logo": 7546,
      "ĠgetAll": 7547,
      "__*/": 7548,
      "ĠstyleUrls": 7549,
      "Requests": 7550,
      "Ġ]),": 7551,
      "DELETE": 7552,
      "ATTRI": 7553,
      "appendTo": 7554,
      "ĠExec": 7555,
      "signup": 7556,
      "Iterable": 7557,
      "Ġmanager": 7558,
      "ĠReadonly": 7559,
      "LOCK": 7560,
      "ìľ¼ë¡ľ": 7561,
      "Ġautomatically": 7562,
      "\"]);": 7563,
      "=>": 7564,
      "FRA": 7565,
      "driver": 7566,
      "ks": 7567,
      "rf": 7568,
      "æŀ": 7569,
      "Ġcategories": 7570,
      "Ġmongoose": 7571,
      "Ġhorizontal": 7572,
      "Ġease": 7573,
      "ĠMock": 7574,
      "ĠLe": 7575,
      "Ġproviders": 7576,
      "compiler": 7577,
      "Ġshown": 7578,
      "----------------------------": 7579,
      "Ġ/>);": 7580,
      "aste": 7581,
      "Origin": 7582,
      "ĠInvalid": 7583,
      "olves": 7584,
      "Ġdefinitions": 7585,
      "grey": 7586,
      "navbar": 7587,
      "ĠViewContainer": 7588,
      "Ġfactory": 7589,
      "SUCCESS": 7590,
      "Ġetc": 7591,
      "Sim": 7592,
      "ao": 7593,
      "aos": 7594,
      "broadcast": 7595,
      "den": 7596,
      "predicate": 7597,
      "Ġcost": 7598,
      "anji": 7599,
      "uniq": 7600,
      "Ġrel": 7601,
      "iding": 7602,
      "lazy": 7603,
      "Ġbel": 7604,
      "Ġ[])": 7605,
      "Ġ$('<": 7606,
      "Ġyet": 7607,
      "Ġwhite": 7608,
      "ĠassertGlobMatch": 7609,
      "Ġaliases": 7610,
      "workbench": 7611,
      "Controls": 7612,
      "curr": 7613,
      "Translate": 7614,
      "Ġcompiler": 7615,
      "transparent": 7616,
      "Ġ386": 7617,
      "NotFound": 7618,
      "ĠExt": 7619,
      "HttpResponse": 7620,
      "references": 7621,
      "Records": 7622,
      "causes": 7623,
      "itespace": 7624,
      "Visit": 7625,
      "ĠindiciaData": 7626,
      "Issue": 7627,
      "ĠAcceptable": 7628,
      "allenge": 7629,
      "Publish": 7630,
      "UInt": 7631,
      "cmd": 7632,
      "calculate": 7633,
      "ially": 7634,
      "âĸ": 7635,
      "å±": 7636,
      "rece": 7637,
      "ident": 7638,
      "coder": 7639,
      "Ġbuilder": 7640,
      "('_": 7641,
      "Ġdynamic": 7642,
      "extensions": 7643,
      "resses": 7644,
      "ĠAuthor": 7645,
      "ĠSc": 7646,
      "ĠPhaser": 7647,
      "irror": 7648,
      "Depth": 7649,
      "Ġshift": 7650,
      "Ġshallow": 7651,
      "Quat": 7652,
      "pires": 7653,
      "UserId": 7654,
      "ActionValue": 7655,
      "netName": 7656,
      "correct": 7657,
      "Ġmodify": 7658,
      "ĠalignItems": 7659,
      "Ġdestination": 7660,
      "Sidebar": 7661,
      "Ġoperator": 7662,
      "ShapeActionValue": 7663,
      "åŃĹ": 7664,
      "å¯¹": 7665,
      "urchase": 7666,
      "ultisig": 7667,
      ":{": 7668,
      "Ap": 7669,
      "Audio": 7670,
      "ForkContext": 7671,
      "Pane": 7672,
      "Using": 7673,
      "aur": 7674,
      "aint": 7675,
      "sql": 7676,
      "trivia": 7677,
      "âĦ": 7678,
      "è·": 7679,
      "Ġabsolute": 7680,
      "Ġslider": 7681,
      "Ġobservable": 7682,
      "liseconds": 7683,
      "ĠTool": 7684,
      "ople": 7685,
      "Ġanswer": 7686,
      "returnValue": 7687,
      "ĠjqXHR": 7688,
      "ĠRender": 7689,
      "STY": 7690,
      "([]);": 7691,
      "ĠzIndex": 7692,
      "Ġrendered": 7693,
      "656": 7694,
      "alent": 7695,
      "udit": 7696,
      "DEFAULT": 7697,
      "Roles": 7698,
      "\"]').": 7699,
      "ACTIVE": 7700,
      "ADER": 7701,
      "writeFileSync": 7702,
      "bran": 7703,
      "ĠColor": 7704,
      "ĠAccess": 7705,
      "Counter": 7706,
      "crypto": 7707,
      "Ġdeserialize": 7708,
      "getByText": 7709,
      "ĠPublicKey": 7710,
      "ĠPartial": 7711,
      "EDITING": 7712,
      "ľê·¸": 7713,
      "'.": 7714,
      "Bool": 7715,
      "Rot": 7716,
      "Site": 7717,
      "USE": 7718,
      "dx": 7719,
      "elocity": 7720,
      "fragment": 7721,
      "orientation": 7722,
      "Ġ(<": 7723,
      "uniform": 7724,
      "Ġtri": 7725,
      "Ġpara": 7726,
      "ationService": 7727,
      "heel": 7728,
      "ĠTree": 7729,
      "Ġtoo": 7730,
      "ĠĠĠĠĠĠĠĠĠĠĠĠĠĠĠĠĠĠĠĠĠĠĠĠĠĠĠĠĠĠĠĠĠ": 7731,
      "iry": 7732,
      "irth": 7733,
      "ĠDet": 7734,
      "fox": 7735,
      "FilePath": 7736,
      "Ġkeyof": 7737,
      "Indexed": 7738,
      "1988": 7739,
      "Ġready": 7740,
      "validation": 7741,
      "Ġrenderer": 7742,
      "Ġspecial": 7743,
      "ancer": 7744,
      "MenuItem": 7745,
      "Checked": 7746,
      "tableFile": 7747,
      "Ġviewer": 7748,
      "toolbar": 7749,
      "Closed": 7750,
      "Ġsignature": 7751,
      "Ġtabindex": 7752,
      "Propagation": 7753,
      "ticket": 7754,
      "callee": 7755,
      "Ġgrunt": 7756,
      "éĹ´": 7757,
      "ĠGeo": 7758,
      "ĠOutput": 7759,
      "TYPES": 7760,
      "21875": 7761,
      ":_": 7762,
      "Cloud": 7763,
      "Op": 7764,
      "Optional": 7765,
      "cf": 7766,
      "cm": 7767,
      "gModule": 7768,
      "ros": 7769,
      "Ġ\",\"": 7770,
      "Ġreg": 7771,
      "oler": 7772,
      "=\"_": 7773,
      "ĠModule": 7774,
      "comments": 7775,
      "Ġprocessed": 7776,
      "Ġuses": 7777,
      "ograph": 7778,
      "Ġargv": 7779,
      "TIME": 7780,
      "Outlined": 7781,
      "ä¸Ĭ": 7782,
      "Updated": 7783,
      "izationError": 7784,
      "ä»¥": 7785,
      "visibility": 7786,
      "æĸ¹": 7787,
      "ETCH": 7788,
      "issues": 7789,
      "delta": 7790,
      "STYLE": 7791,
      "Fake": 7792,
      "Sound": 7793,
      "TC": 7794,
      "patch": 7795,
      "erature": 7796,
      "Ġcla": 7797,
      "Ġ'--": 7798,
      "igit": 7799,
      "getItem": 7800,
      "getCurrent": 7801,
      "Ġ128": 7802,
      "Register": 7803,
      "Ġ216": 7804,
      "ĠMet": 7805,
      "more": 7806,
      "Ġ./": 7807,
      "Ġmedia": 7808,
      "coded": 7809,
      "__,": 7810,
      "ebook": 7811,
      "aderboard": 7812,
      "FormItem": 7813,
      "REG": 7814,
      "links": 7815,
      "ï¼ļ": 7816,
      "}/>": 7817,
      "unknown": 7818,
      "Ġpayment": 7819,
      "ĠborderRadius": 7820,
      "OrderBy": 7821,
      "ĠapiVersion": 7822,
      "distance": 7823,
      "ĠjustifyContent": 7824,
      "Correct": 7825,
      "existsSync": 7826,
      "æĸĩä»¶": 7827,
      "icipant": 7828,
      "ĠScalars": 7829,
      "Ġ/*#__": 7830,
      "AX": 7831,
      "EM": 7832,
      "Mask": 7833,
      "Mutation": 7834,
      "WID": 7835,
      "focused": 7836,
      "ti": 7837,
      "ĠContent": 7838,
      "reaction": 7839,
      "Ġ\";": 7840,
      "Ġremote": 7841,
      "ceed": 7842,
      "toContain": 7843,
      "ĠTO": 7844,
      "licated": 7845,
      "Ġ2000": 7846,
      "ĠCore": 7847,
      "ĠCity": 7848,
      "Ġanother": 7849,
      "Ġmem": 7850,
      "waitFor": 7851,
      "argument": 7852,
      "Dependencies": 7853,
      "perform": 7854,
      "cripts": 7855,
      "iterate": 7856,
      "Dirty": 7857,
      "Ġquat": 7858,
      "runner": 7859,
      "ĠparsedResponse": 7860,
      "Phone": 7861,
      "íķĺëĬĶ": 7862,
      "ĠwaitFor": 7863,
      "Board": 7864,
      "+/": 7865,
      ">/": 7866,
      "BASE": 7867,
      "CLASS": 7868,
      "Hours": 7869,
      "Memo": 7870,
      "jest": 7871,
      "long": 7872,
      "vh": 7873,
      "æģ": 7874,
      "ìĭľ": 7875,
      "Ġcalculate": 7876,
      "rok": 7877,
      "Ġpush": 7878,
      "Ġpending": 7879,
      "Ġok": 7880,
      "apes": 7881,
      "Study": 7882,
      "Ġwarning": 7883,
      "derr": 7884,
      "={`${": 7885,
      "ĠonMouse": 7886,
      "ĠLI": 7887,
      "ĠdataType": 7888,
      "Ġ/>}": 7889,
      "REC": 7890,
      "Short": 7891,
      "}`}": 7892,
      "removeEventListener": 7893,
      "MAGE": 7894,
      "condition": 7895,
      "Ġpreview": 7896,
      "ĠĠĠĠĠĠčĊ": 7897,
      "ailab": 7898,
      "windows": 7899,
      "ĠChart": 7900,
      "Ġcustomizer": 7901,
      "Ġinstall": 7902,
      "Ġexpand": 7903,
      "operator": 7904,
      "Exports": 7905,
      "Guard": 7906,
      "AREA": 7907,
      "rupt": 7908,
      "commendation": 7909,
      "CL": 7910,
      "Cart": 7911,
      "Git": 7912,
      "SY": 7913,
      "UB": 7914,
      "gif": 7915,
      "lus": 7916,
      "middle": 7917,
      "oices": 7918,
      "ìķ": 7919,
      "Ġcoin": 7920,
      "Ġ\"),": 7921,
      "Intent": 7922,
      "(\"\\": 7923,
      "ĠActiv": 7924,
      "Ġglob": 7925,
      "ĠEShapeActionValue": 7926,
      "ĠOper": 7927,
      "ĠFOR": 7928,
      "formed": 7929,
      "Ġ['./": 7930,
      "tele": 7931,
      "localize": 7932,
      "Ġvisual": 7933,
      "veloper": 7934,
      "Connected": 7935,
      "uplicate": 7936,
      "\"',": 7937,
      ">>;": 7938,
      "Disable": 7939,
      "Pin": 7940,
      "hand": 7941,
      "mac": 7942,
      "Ġimages": 7943,
      "ony": 7944,
      "Ġ{$": 7945,
      "ĉĉĠĠĠ": 7946,
      "ung": 7947,
      "els": 7948,
      "letter": 7949,
      "Namespace": 7950,
      "Ġethers": 7951,
      "verity": 7952,
      "agram": 7953,
      "aka": 7954,
      "Tests": 7955,
      "ĠGets": 7956,
      "Ġadmin": 7957,
      "åĪĹ": 7958,
      "LOG": 7959,
      "loyee": 7960,
      "secondary": 7961,
      "ĠOnly": 7962,
      "ĠCollection": 7963,
      "BUTE": 7964,
      "valuate": 7965,
      "åĩº": 7966,
      "Commit": 7967,
      "Ġpixels": 7968,
      "æŃ£": 7969,
      "ĠngOnInit": 7970,
      ")})": 7971,
      ">${": 7972,
      "Face": 7973,
      "Team": 7974,
      "ipt": 7975,
      "Ġem": 7976,
      "Ļ»": 7977,
      "rock": 7978,
      "isP": 7979,
      "Ġrecur": 7980,
      "Ġpointer": 7981,
      "Ġstub": 7982,
      "getUser": 7983,
      "aml": 7984,
      "dict": 7985,
      "ĠSession": 7986,
      "lying": 7987,
      "protected": 7988,
      "ebreak": 7989,
      "\")).": 7990,
      "workflow": 7991,
      "placeholder": 7992,
      "tection": 7993,
      "Ġë¬¸": 7994,
      "']],": 7995,
      "78125": 7996,
      "ĠConvert": 7997,
      "Opened": 7998,
      "Ġdisplayed": 7999,
      "Ġsuccessfully": 8000,
      "gesture": 8001,
      "å¼Ģ": 8002,
      "Ġfactor": 8003,
      "Distance": 8004,
      "Injectable": 8005,
      "Activity": 8006,
      "Comments": 8007,
      "Ġíĥľê·¸": 8008,
      "ailability": 8009,
      ")`": 8010,
      "/#": 8011,
      "Credentials": 8012,
      "ISS": 8013,
      "Ldap": 8014,
      "MD": 8015,
      "Two": 8016,
      "bundle": 8017,
      "vim": 8018,
      "yes": 8019,
      "¸ëĵľ": 8020,
      "ħ¸ëĵľ": 8021,
      "Ġflatten": 8022,
      "Ġsaved": 8023,
      "('-": 8024,
      "Ġdx": 8025,
      "Ġduring": 8026,
      "Ġ[_": 8027,
      "Cont": 8028,
      "rename": 8029,
      "={[": 8030,
      "provenance": 8031,
      "ĠIs": 8032,
      "ĠgetS": 8033,
      "ipment": 8034,
      "bose": 8035,
      "Configs": 8036,
      "TEST": 8037,
      "ContextMenu": 8038,
      "ĠInst": 8039,
      "Ġcompute": 8040,
      "Ġoverlap": 8041,
      "OLD": 8042,
      "matrix": 8043,
      "DivElement": 8044,
      "ĠLoDashImplicitWrapper": 8045,
      "ç»Ħ": 8046,
      "è®¤": 8047,
      "Ġfinally": 8048,
      "Ġ))}": 8049,
      "âĸł": 8050,
      ")=>{": 8051,
      "234": 8052,
      "AME": 8053,
      "CR": 8054,
      "bul": 8055,
      "bas": 8056,
      "hint": 8057,
      "rm": 8058,
      "uint": 8059,
      "åĳ": 8060,
      "sequ": 8061,
      "entals": 8062,
      "Ġ\"Â": 8063,
      "pear": 8064,
      "Ġsuite": 8065,
      "ellow": 8066,
      "added": 8067,
      "ilities": 8068,
      "Ġstill": 8069,
      "conn": 8070,
      "impl": 8071,
      "Ġdepth": 8072,
      "Ġ219": 8073,
      "ĠEnd": 8074,
      "Encrypt": 8075,
      "ĠRoot": 8076,
      "ryption": 8077,
      "Viewer": 8078,
      "LET": 8079,
      "pathname": 8080,
      "Anim": 8081,
      "([^": 8082,
      "789": 8083,
      "59375": 8084,
      "ODY": 8085,
      "ĠTestBed": 8086,
      "CONFIG": 8087,
      "Merge": 8088,
      "53125": 8089,
      "clarations": 8090,
      "Ġphone": 8091,
      "Ġnormalize": 8092,
      "ownerID": 8093,
      "(.": 8094,
      "*\\": 8095,
      "280": 8096,
      "Cost": 8097,
      "ION": 8098,
      "Tip": 8099,
      "hue": 8100,
      "sModule": 8101,
      "ª¨": 8102,
      "å§": 8103,
      "ĉĠĠĠĠĠĠĠĠĠĠĠĠĠĠĠ": 8104,
      "requ": 8105,
      "enus": 8106,
      "Ġcrypto": 8107,
      "Ġ\"__": 8108,
      "InThe": 8109,
      "odies": 8110,
      "quid": 8111,
      "resolved": 8112,
      "ĠAss": 8113,
      "Ġgu": 8114,
      "Ġ>>>": 8115,
      "Ġorigin": 8116,
      "gistration": 8117,
      "Ġlisten": 8118,
      "Ġlinebreak": 8119,
      "closed": 8120,
      "organ": 8121,
      "Customer": 8122,
      "Override": 8123,
      "Modify": 8124,
      "initialize": 8125,
      "structions": 8126,
      "Available": 8127,
      "FILE": 8128,
      "issue": 8129,
      "riteria": 8130,
      "Thumbnail": 8131,
      "QUEST": 8132,
      "ATTRIBUTE": 8133,
      "Basic": 8134,
      "Suite": 8135,
      "circ": 8136,
      "gatsby": 8137,
      "mute": 8138,
      "Ġlock": 8139,
      "Ġlibrary": 8140,
      "Ġ{{": 8141,
      "illa": 8142,
      "Stage": 8143,
      "Ġ120": 8144,
      "abc": 8145,
      "Information": 8146,
      "Ġws": 8147,
      "setTimeout": 8148,
      "Ġdependencies": 8149,
      "Ġforward": 8150,
      "texture": 8151,
      "ĠonPress": 8152,
      "Delegate": 8153,
      "Ġident": 8154,
      "redit": 8155,
      "Linebreak": 8156,
      "ĠìĦ": 8157,
      "scripts": 8158,
      "25000": 8159,
      "trast": 8160,
      "Ġcompile": 8161,
      "Blocks": 8162,
      "($(": 8163,
      "ARD": 8164,
      "Ġprocessing": 8165,
      "ĠChat": 8166,
      "Ġcustomer": 8167,
      "Minutes": 8168,
      "payment": 8169,
      "Ġlazy": 8170,
      "Ġinterval": 8171,
      "firebase": 8172,
      "ĠNotification": 8173,
      "Geometry": 8174,
      "Ġterms": 8175,
      "frac": 8176,
      "ĠBigNumber": 8177,
      "\"/>": 8178,
      "96875": 8179,
      "Clip": 8180,
      "DATA": 8181,
      "Hel": 8182,
      "MODE": 8183,
      "did": 8184,
      "pull": 8185,
      "tle": 8186,
      "uent": 8187,
      "Ġ70": 8188,
      "Ġ\\\\": 8189,
      "leave": 8190,
      "enance": 8191,
      "Ġfront": 8192,
      "Ġ\"&": 8193,
      "esm": 8194,
      "utations": 8195,
      "laced": 8196,
      "getConfig": 8197,
      "usc": 8198,
      "Consent": 8199,
      "ĠPO": 8200,
      "Ġproto": 8201,
      "Ġsets": 8202,
      "linear": 8203,
      "ĠHelpers": 8204,
      "1234": 8205,
      "108": 8206,
      "Ġìĭľ": 8207,
      "cluded": 8208,
      "baseUri": 8209,
      "miss": 8210,
      "claim": 8211,
      "Prev": 8212,
      "ĠSelect": 8213,
      "pipeline": 8214,
      "Ġclosed": 8215,
      "Ġsymbols": 8216,
      "Popover": 8217,
      "alyzer": 8218,
      "compareNatural": 8219,
      "Ġincluding": 8220,
      "TuyaDataPoint": 8221,
      "CHANGE": 8222,
      "èĩª": 8223,
      ")\\": 8224,
      "-\\": 8225,
      "50000": 8226,
      "BR": 8227,
      "Cmd": 8228,
      "Lng": 8229,
      "Slide": 8230,
      "bars": 8231,
      "gers": 8232,
      "observable": 8233,
      "propTypes": 8234,
      "saved": 8235,
      "typ": 8236,
      "Ġ--------------------------------": 8237,
      "Ġpur": 8238,
      "',['": 8239,
      "Ġscore": 8240,
      "Ġslice": 8241,
      "Ġdirective": 8242,
      "Ġmaster": 8243,
      "Ġmapping": 8244,
      "setValue": 8245,
      "ableOpacity": 8246,
      "ĠAND": 8247,
      "take": 8248,
      "Ġ$$": 8249,
      "finite": 8250,
      "Ġ34": 8251,
      "\">{": 8252,
      "ĠRun": 8253,
      "Ġìľ": 8254,
      "Ġ\"â©": 8255,
      "ĠformData": 8256,
      "changes": 8257,
      "ĠĠĠĠĠĠĠĠĠĠĠĠčĊ": 8258,
      "encrypt": 8259,
      "scrollTop": 8260,
      "existing": 8261,
      "ĠsendTuyaDataPoint": 8262,
      "ìŀ¥": 8263,
      "Instances": 8264,
      "cedure": 8265,
      "||||": 8266,
      "ĠvolumePoint": 8267,
      "quivalent": 8268,
      "gorithm": 8269,
      "branch": 8270,
      "âĸłâĸł": 8271,
      "$(\"#": 8272,
      ":#": 8273,
      "=-": 8274,
      "Den": 8275,
      "Dot": 8276,
      "WARE": 8277,
      "ltr": 8278,
      "»ĺ": 8279,
      "Ĥ¹": 8280,
      "ering": 8281,
      "aris": 8282,
      "Ġrequires": 8283,
      "Ġbalance": 8284,
      "ceil": 8285,
      "ĠonSelect": 8286,
      "Ġmeans": 8287,
      "Ġ})),": 8288,
      "Ġchrome": 8289,
      "moveTo": 8290,
      "Trust": 8291,
      "Ġ64": 8292,
      "Ġrequested": 8293,
      "Unexpected": 8294,
      "++,": 8295,
      "monaco": 8296,
      "lastIndex": 8297,
      "ĠInter": 8298,
      "DEBUG": 8299,
      "headerName": 8300,
      "Implementation": 8301,
      "ĠExpress": 8302,
      "azy": 8303,
      "Coordin": 8304,
      "Ġnegative": 8305,
      "Ġplaylist": 8306,
      "Authorization": 8307,
      "Ġtslint": 8308,
      "Ġinteger": 8309,
      "FTWARE": 8310,
      "Delta": 8311,
      "ĠCorporation": 8312,
      "æģ¯": 8313,
      "Claim": 8314,
      "Late": 8315,
      "OG": 8316,
      "Will": 8317,
      "bid": 8318,
      "disposables": 8319,
      "uation": 8320,
      "}))": 8321,
      "å¿": 8322,
      "Ġ}>": 8323,
      "allo": 8324,
      "alpha": 8325,
      "mesh": 8326,
      "Ġreal": 8327,
      "Ġtodo": 8328,
      "Ġpipe": 8329,
      "utors": 8330,
      "Ġbranch": 8331,
      "(':": 8332,
      "uman": 8333,
      "quick": 8334,
      "important": 8335,
      "toast": 8336,
      "ĠMon": 8337,
      "jsx": 8338,
      "pair": 8339,
      "Ġ31": 8340,
      "Ġprototype": 8341,
      "ĠGit": 8342,
      "ĠUt": 8343,
      "Ġshader": 8344,
      "ĠRule": 8345,
      "})(": 8346,
      "15625": 8347,
      "toBeInThe": 8348,
      "Ġtimes": 8349,
      "sendMessage": 8350,
      "ACT": 8351,
      "olvable": 8352,
      "parts": 8353,
      "LOAD": 8354,
      "sidebar": 8355,
      "LIST": 8356,
      "Steps": 8357,
      "ĠLogin": 8358,
      "Ġintegration": 8359,
      "ĠDocDbdbCluster": 8360,
      "Greater": 8361,
      "íĦ°": 8362,
      "toBeInTheDocument": 8363,
      "$('#": 8364,
      ".${": 8365,
      "Aws": 8366,
      "Free": 8367,
      "VEN": 8368,
      "]];": 8369,
      "dto": 8370,
      "ned": 8371,
      "uk": 8372,
      "}]": 8373,
      "}${": 8374,
      "çĤ¹": 8375,
      "ï¸": 8376,
      "Ġ\"+": 8377,
      "--)": 8378,
      "ulator": 8379,
      "('\"": 8380,
      "Ġmight": 8381,
      "Ġmany": 8382,
      "Ġ28": 8383,
      "actor": 8384,
      "logs": 8385,
      "Ġ35": 8386,
      "ĠnameObj": 8387,
      "Defs": 8388,
      "Ġì»": 8389,
      "subscriptions": 8390,
      "configure": 8391,
      "})();": 8392,
      "Ġleast": 8393,
      "[]>;": 8394,
      "Ġrendering": 8395,
      "ĠLoading": 8396,
      "ales": 8397,
      "Ġpages": 8398,
      "iterable": 8399,
      "Permissions": 8400,
      "Parts": 8401,
      "hostname": 8402,
      "Running": 8403,
      "Ġexplicit": 8404,
      "AccessToken": 8405,
      "åħ¥": 8406,
      "ORDER": 8407,
      "querySelectorAll": 8408,
      "DropdownLayer": 8409,
      "ðĿĶ": 8410,
      "åīį": 8411,
      "Ļ»å½ķ": 8412,
      "å§ĭ": 8413,
      ">')": 8414,
      "GGLE": 8415,
      "Pi": 8416,
      "Sum": 8417,
      "aunch": 8418,
      "jpe": 8419,
      "mind": 8420,
      "xl": 8421,
      "è´": 8422,
      "ìĻ": 8423,
      "Ġer": 8424,
      "orn": 8425,
      "Ġcs": 8426,
      "alarm": 8427,
      "isValid": 8428,
      "elCell": 8429,
      "Ġdry": 8430,
      "Inner": 8431,
      "Ġhapp": 8432,
      "Ġresources": 8433,
      "ĠCell": 8434,
      "finish": 8435,
      "Ġsegments": 8436,
      "ĠBasket": 8437,
      "quality": 8438,
      "105": 8439,
      "906": 8440,
      "ĠConnect": 8441,
      "ĠApplication": 8442,
      "åıĤ": 8443,
      "Construct": 8444,
      "gedIn": 8445,
      "deepStrictEqual": 8446,
      "zyme": 8447,
      "Ġfailure": 8448,
      "feedback": 8449,
      "RAY": 8450,
      "BEFORE": 8451,
      "Days": 8452,
      "Double": 8453,
      ";;;;;;;;;;;;;;;;": 8454,
      "READY": 8455,
      "844": 8456,
      "Done": 8457,
      "Hour": 8458,
      "HIDE": 8459,
      "Sig": 8460,
      "given": 8461,
      "math": 8462,
      "uer": 8463,
      "èĢ": 8464,
      "ë¶": 8465,
      "ëł": 8466,
      "Ġroll": 8467,
      "Ġescape": 8468,
      "once": 8469,
      "arp": 8470,
      "Ġ\"</": 8471,
      "Ġremaining": 8472,
      "Ġsnapshot": 8473,
      "Ġbuilt": 8474,
      "Ġstandard": 8475,
      "getLinebreak": 8476,
      "Ġ101": 8477,
      "ĠTrivia": 8478,
      "Ġresize": 8479,
      "ĠMS": 8480,
      "ĠLabel": 8481,
      "ĠEmber": 8482,
      "Sele": 8483,
      "agin": 8484,
      "ĠRepresent": 8485,
      "aker": 8486,
      "/**/*.": 8487,
      "ĠFirst": 8488,
      "ordinal": 8489,
      "Ġjasmine": 8490,
      "Icons": 8491,
      "Impl": 8492,
      "Ġupdates": 8493,
      "Ġoverlay": 8494,
      "sku": 8495,
      "playing": 8496,
      "ĠURI": 8497,
      "Split": 8498,
      "ìĦ±": 8499,
      "toHaveBeenCalledTimes": 8500,
      "SERT": 8501,
      "ĠvirtualAlexa": 8502,
      "56250": 8503,
      "Cookie": 8504,
      "FTER": 8505,
      "SCH": 8506,
      "Win": 8507,
      "between": 8508,
      "gend": 8509,
      "person": 8510,
      "priority": 8511,
      "verview": 8512,
      "è°": 8513,
      "restore": 8514,
      "aturation": 8515,
      "demo": 8516,
      "coords": 8517,
      "Ġmost": 8518,
      "cons": 8519,
      "Ġ188": 8520,
      "ria": 8521,
      "Ġintent": 8522,
      "Ġ00": 8523,
      "ĠSH": 8524,
      "ĠSystem": 8525,
      "={<": 8526,
      "oog": 8527,
      "Ġfork": 8528,
      "ĠonClose": 8529,
      "ĠDrop": 8530,
      "intent": 8531,
      "Ġgets": 8532,
      "ĠgetUser": 8533,
      "Chain": 8534,
      "Extra": 8535,
      "percent": 8536,
      "Ġlang": 8537,
      "Shared": 8538,
      "Ġlogo": 8539,
      "34375": 8540,
      "Blockly": 8541,
      "ĠYargs": 8542,
      "fieldName": 8543,
      "ĠinitialState": 8544,
      "62500": 8545,
      "Ġconnected": 8546,
      "ĠRequestCallback": 8547,
      "plus": 8548,
      "Ġpromises": 8549,
      "nativeElement": 8550,
      "Creation": 8551,
      "getByTestId": 8552,
      "Term": 8553,
      "ìĥģ": 8554,
      "Operator": 8555,
      "çĲĨ": 8556,
      "ĠPrice": 8557,
      "éĿ¢": 8558,
      "COMPON": 8559,
      "VIEW": 8560,
      "46875": 8561,
      "Cb": 8562,
      "Patch": 8563,
      "Used": 8564,
      "fp": 8565,
      "ric": 8566,
      "vv": 8567,
      "ĠåĪ": 8568,
      "Ġlatest": 8569,
      "Ġedges": 8570,
      "onDid": 8571,
      "roken": 8572,
      "exact": 8573,
      "pell": 8574,
      "Ġconcat": 8575,
      "Ġins": 8576,
      "Reason": 8577,
      "ĠTab": 8578,
      "Ġdes": 8579,
      "izations": 8580,
      "ĠPre": 8581,
      "scr": 8582,
      "backend": 8583,
      "antt": 8584,
      "Begin": 8585,
      "FormGroup": 8586,
      "Ġcallbacks": 8587,
      "Ġarea": 8588,
      "ĠcomponentDid": 8589,
      "showdown": 8590,
      "ancell": 8591,
      "execution": 8592,
      "Ġcalls": 8593,
      "Ġíĺ": 8594,
      "Ġallows": 8595,
      "HEIGHT": 8596,
      "ĠAddress": 8597,
      "ReactNode": 8598,
      "åħ³": 8599,
      "Months": 8600,
      "attle": 8601,
      "Closure": 8602,
      "ingerprint": 8603,
      "(\",": 8604,
      "/\"": 8605,
      "_)": 8606,
      "pkg": 8607,
      "rad": 8608,
      "ç§": 8609,
      "é»ĺ": 8610,
      "inations": 8611,
      "enario": 8612,
      "Ġcdk": 8613,
      "Ġ';": 8614,
      "Ġrepository": 8615,
      "Ġpy": 8616,
      "extHost": 8617,
      "htSelection": 8618,
      "live": 8619,
      "Ġ26": 8620,
      "Ġ224": 8621,
      "ĠClass": 8622,
      "wag": 8623,
      "ĠDialog": 8624,
      "Security": 8625,
      "DataType": 8626,
      "typedef": 8627,
      "ĠUtil": 8628,
      "Ġorientation": 8629,
      "Ġnotice": 8630,
      "106": 8631,
      "Ġ\"â¥": 8632,
      "Models": 8633,
      "Ġconfigure": 8634,
      "override": 8635,
      "transfer": 8636,
      "9999": 8637,
      "Ġlisteners": 8638,
      "Ġmobile": 8639,
      "Ġnothing": 8640,
      "Ġuuid": 8641,
      "stopPropagation": 8642,
      "ccion": 8643,
      "Ġcontrols": 8644,
      "examples": 8645,
      "ĠresettableFile": 8646,
      "æĪĳ": 8647,
      "OUND": 8648,
      "ĠResolver": 8649,
      "ĠSubscription": 8650,
      "Ġrepresentation": 8651,
      "releaseDates": 8652,
      "ĠLocal": 8653,
      "Ġactivate": 8654,
      "LINE": 8655,
      "åĢ¼": 8656,
      "ĠSOFTWARE": 8657,
      "WIDTH": 8658,
      "%\"": 8659,
      "Badge": 8660,
      "Hit": 8661,
      "Mail": 8662,
      "STE": 8663,
      "TODO": 8664,
      "ners": 8665,
      "snapshot": 8666,
      "wesome": 8667,
      "å¸": 8668,
      "ê²": 8669,
      "ëĤ": 8670,
      "ģ¬": 8671,
      "ino": 8672,
      "lev": 8673,
      "Ġfallback": 8674,
      "unshift": 8675,
      "ingMethod": 8676,
      "Ġpower": 8677,
      "losing": 8678,
      "laces": 8679,
      "ĠoNode": 8680,
      "Ġbucket": 8681,
      "oll": 8682,
      "htResizing": 8683,
      "setColor": 8684,
      "Conn": 8685,
      "health": 8686,
      "quelize": 8687,
      "ĠonSubmit": 8688,
      "Seed": 8689,
      "Ġnotify": 8690,
      "ĠassertNo": 8691,
      "ĠWindow": 8692,
      "ĠtextAlign": 8693,
      "RES": 8694,
      "Ġ66": 8695,
      "20150": 8696,
      "ĠresponseType": 8697,
      "Expand": 8698,
      "ĠëķĮ": 8699,
      "Ġcompleted": 8700,
      "Ġzip": 8701,
      "40625": 8702,
      "phere": 8703,
      "localStorage": 8704,
      "ancy": 8705,
      "selectAll": 8706,
      "Positions": 8707,
      "projectFile": 8708,
      "Ġparticles": 8709,
      "09375": 8710,
      "Spinner": 8711,
      "æĸ°": 8712,
      "ìłľ": 8713,
      "Ġframework": 8714,
      "////////////////////////////////////////////////////////////////": 8715,
      "ä¸Ģä¸ª": 8716,
      "ê³ł": 8717,
      "'?:": 8718,
      "(${": 8719,
      ".#": 8720,
      "06250": 8721,
      "71875": 8722,
      "Ach": 8723,
      "BODY": 8724,
      "EE": 8725,
      "Horizontal": 8726,
      "MO": 8727,
      "Pick": 8728,
      "Sm": 8729,
      "Sizes": 8730,
      "lt": 8731,
      "tbody": 8732,
      "xe": 8733,
      "Ð¸": 8734,
      "Ġ..": 8735,
      "onClick": 8736,
      "onMouse": 8737,
      "rou": 8738,
      "Ġpar": 8739,
      "lambda": 8740,
      "Ġbasic": 8741,
      "Ġdeprecated": 8742,
      "=\"-": 8743,
      "ĠPRO": 8744,
      "variables": 8745,
      "Toast": 8746,
      "Arch": 8747,
      "TextParser": 8748,
      "EventHandler": 8749,
      "Ġ42": 8750,
      "permissions": 8751,
      "INTER": 8752,
      "INVALID": 8753,
      "REQUEST": 8754,
      "Username": 8755,
      "Ġ\"â«": 8756,
      "baseUrl": 8757,
      "90625": 8758,
      "MAP": 8759,
      "parents": 8760,
      "Ġmarks": 8761,
      "Ġmarket": 8762,
      "Ġfiltered": 8763,
      "alsy": 8764,
      "ILITY": 8765,
      "Products": 8766,
      "Ġreceived": 8767,
      "illingAddress": 8768,
      "é¢ĺ": 8769,
      "éĻ¤": 8770,
      "Ġcertification": 8771,
      "jpeg": 8772,
      "Numeric": 8773,
      "RR": 8774,
      "Rename": 8775,
      "Suggest": 8776,
      "eg": 8777,
      "east": 8778,
      "flat": 8779,
      "mazon": 8780,
      "obs": 8781,
      "ç±": 8782,
      "èĥ½": 8783,
      "ĠĠĠĠččĊ": 8784,
      "isB": 8785,
      "members": 8786,
      "Ġ\"^": 8787,
      "Ġ(...": 8788,
      "Ġpull": 8789,
      "Ġplural": 8790,
      "Ġpkg": 8791,
      "//#": 8792,
      "Ġiframe": 8793,
      "Ġhit": 8794,
      "artifact": 8795,
      "Ġequivalent": 8796,
      "ĠSymbol": 8797,
      "apps": 8798,
      "iration": 8799,
      "Resolvable": 8800,
      "Ġrate": 8801,
      "Envelope": 8802,
      "ORE": 8803,
      "Apply": 8804,
      "[]}": 8805,
      "MAT": 8806,
      "='+": 8807,
      "missing": 8808,
      "ï¼Ī": 8809,
      "ï¼ī": 8810,
      "ĠJavaScript": 8811,
      "Formatter": 8812,
      "Languages": 8813,
      "Created": 8814,
      "ConfigurationProperty": 8815,
      "ĠSubject": 8816,
      "tmlTextParser": 8817,
      "Ġissues": 8818,
      "Ġterm": 8819,
      "Ġfirebase": 8820,
      "ëĲľ": 8821,
      "PATH": 8822,
      "æ³ķ": 8823,
      "-${": 8824,
      "101": 8825,
      "CODE": 8826,
      "NET": 8827,
      "PG": 8828,
      "Serial": 8829,
      "Uuid": 8830,
      "electron": 8831,
      "gi": 8832,
      "ĠStatus": 8833,
      "invoke": 8834,
      "leto": 8835,
      "Ġclip": 8836,
      "isLoading": 8837,
      "Ġthumb": 8838,
      "Ġ\")": 8839,
      "Ġconditions": 8840,
      "Ġdias": 8841,
      "Ġ114": 8842,
      "term": 8843,
      "toJSON": 8844,
      "=\"${": 8845,
      "ĠSVG": 8846,
      "ights": 8847,
      "Ġ360": 8848,
      "ĠOTHER": 8849,
      "userid": 8850,
      "ValueType": 8851,
      "../../../../": 8852,
      "\")}": 8853,
      "Shipping": 8854,
      "Legacy": 8855,
      "TabList": 8856,
      "Validate": 8857,
      "à¸²": 8858,
      "Ġdefinition": 8859,
      "ĠmarginBottom": 8860,
      "Definitions": 8861,
      "ĠDocDbDescribe": 8862,
      "ë¡Ŀ": 8863,
      "Ġcapture": 8864,
      "Ġappro": 8865,
      "Deployment": 8866,
      "auge": 8867,
      "Ġcorresponding": 8868,
      "ĠassertNoGlobMatch": 8869,
      "Act": 8870,
      "Hint": 8871,
      "Memb": 8872,
      "Multiple": 8873,
      "Tail": 8874,
      "Vue": 8875,
      "`<": 8876,
      "`).": 8877,
      "cup": 8878,
      "danger": 8879,
      "eql": 8880,
      "sur": 8881,
      "wind": 8882,
      "ĮĢ": 8883,
      "Ġti": 8884,
      "Ġmask": 8885,
      "Ġ115": 8886,
      "ods": 8887,
      "Region": 8888,
      "etter": 8889,
      "tached": 8890,
      "ĠCo": 8891,
      "ynthes": 8892,
      "Deleted": 8893,
      "axios": 8894,
      "Keyboard": 8895,
      "antd": 8896,
      "ĠNavigation": 8897,
      "permission": 8898,
      "FormElement": 8899,
      "Sets": 8900,
      "75000": 8901,
      "enses": 8902,
      "Ġknow": 8903,
      "Ġleading": 8904,
      "Ġdocumentation": 8905,
      "Ġëĭ": 8906,
      "TabGroup": 8907,
      "FFLE": 8908,
      "LineItem": 8909,
      "Ġinstances": 8910,
      "Ġsprite": 8911,
      "TOGGLE": 8912,
      "flood": 8913,
      "HttpOperationResponse": 8914,
      "UPDATE": 8915,
      "instant": 8916,
      "å¤§": 8917,
      "ä¸ĭè½½": 8918,
      "įç½®": 8919,
      "ĠIdent": 8920,
      "CDheader": 8921,
      "81250": 8922,
      "scriber": 8923,
      "RUFFLE": 8924,
      "åıĤæķ°": 8925,
      "ĠYargsInstance": 8926,
      "FIN": 8927,
      "Nil": 8928,
      "Piece": 8929,
      "XML": 8930,
      "cmp": 8931,
      "ever": 8932,
      "tc": 8933,
      "wm": 8934,
      "Ġ^": 8935,
      "depth": 8936,
      "Ġfeatures": 8937,
      "Ġtrim": 8938,
      "()),": 8939,
      "converter": 8940,
      "abort": 8941,
      "racle": 8942,
      "ĠCan": 8943,
      "ĠDatabase": 8944,
      "ĠFilter": 8945,
      "External": 8946,
      "Ġcollide": 8947,
      "Ġlg": 8948,
      "ucceeded": 8949,
      "Ġ\"âĢ": 8950,
      "endsWith": 8951,
      "Ġapps": 8952,
      "Dashboard": 8953,
      "594": 8954,
      "withContext": 8955,
      "Ġposts": 8956,
      "03125": 8957,
      "Divider": 8958,
      "ĠCompleto": 8959,
      "charCode": 8960,
      "TabPanels": 8961,
      "optionalCallback": 8962,
      "cipient": 8963,
      "lookup": 8964,
      "FRAME": 8965,
      "601": 8966,
      "]/": 8967,
      "]][": 8968,
      "cing": 8969,
      "hit": 8970,
      "sheet": 8971,
      "spaces": 8972,
      "Ġcamp": 8973,
      "igration": 8974,
      "extract": 8975,
      "abilities": 8976,
      "quiz": 8977,
      "ands": 8978,
      "(\"../": 8979,
      "Ġ_:": 8980,
      "ĠParser": 8981,
      "ĠOver": 8982,
      "Ġ})).": 8983,
      "Expected": 8984,
      "ĠerrorCode": 8985,
      "reducer": 8986,
      "Views": 8987,
      "cesses": 8988,
      "uffers": 8989,
      "Answer": 8990,
      "AppContainer": 8991,
      "notifications": 8992,
      "2017": 8993,
      "Ġëħ¸ëĵľ": 8994,
      "PageLink": 8995,
      "Thread": 8996,
      "Manifest": 8997,
      "Ġpercent": 8998,
      "Ġminutes": 8999,
      "28125": 9000,
      "AND": 9001,
      "ceptor": 9002,
      "ĠfontWeight": 9003,
      "offsetWidth": 9004,
      "ĠborderColor": 9005,
      "sorted": 9006,
      "tempts": 9007,
      "æľĢ": 9008,
      "products": 9009,
      "capacity": 9010,
      "ĠĠĠĠĠĠĠĠĠĠĠĠĠĠĠĠĠĠĠĠĠĠĠĠĠĠĠĠĠĠĠĠĠĠ": 9011,
      "Ġvisitor": 9012,
      "(...)": 9013,
      "Ġnormalized": 9014,
      "Supported": 9015,
      "ĠìĹĨ": 9016,
      "datatype": 9017,
      "AUTH": 9018,
      "é»ĺè®¤": 9019,
      "ç±»": 9020,
      "2000": 9021,
      "Blue": 9022,
      "Cat": 9023,
      "Err": 9024,
      "Front": 9025,
      "UID": 9026,
      "UMENT": 9027,
      "cam": 9028,
      "si": 9029,
      "±°": 9030,
      "erce": 9031,
      "erId": 9032,
      "thread": 9033,
      "thousand": 9034,
      "isIn": 9035,
      "Ġsummary": 9036,
      "elcome": 9037,
      "apis": 9038,
      "getSelection": 9039,
      "Into": 9040,
      "racket": 9041,
      "Req": 9042,
      "Ġresp": 9043,
      "ĠCall": 9044,
      "ĠMod": 9045,
      "ĠMicrosoft": 9046,
      "moz": 9047,
      "DataProvider": 9048,
      "addTo": 9049,
      "ashboard": 9050,
      "127": 9051,
      "Setup": 9052,
      "Ġko": 9053,
      "ĠVector": 9054,
      "IconButton": 9055,
      "tomorrow": 9056,
      "Images": 9057,
      "Ġoutputs": 9058,
      "accounts": 9059,
      "DIV": 9060,
      "Monitor": 9061,
      "Ġinterpol": 9062,
      "operators": 9063,
      "================================================": 9064,
      "ĠValidator": 9065,
      "charAt": 9066,
      "Debugger": 9067,
      "ĠreleaseDates": 9068,
      "Ġgreat": 9069,
      "Handlers": 9070,
      "allel": 9071,
      "Seleccion": 9072,
      "EOF": 9073,
      "PD": 9074,
      "Phaser": 9075,
      "VNode": 9076,
      "]\",": 9077,
      "ah": 9078,
      "ivery": 9079,
      "}\",": 9080,
      "ä¾": 9081,
      "æı": 9082,
      "ç®": 9083,
      "ç¤º": 9084,
      "ĠâĢ": 9085,
      "Ħì": 9086,
      "eral": 9087,
      "inct": 9088,
      "ste": 9089,
      "Ġnvim": 9090,
      "ifference": 9091,
      "Ġvector": 9092,
      "Ġbundle": 9093,
      "getState": 9094,
      "confirmed": 9095,
      "Ġconstant": 9096,
      "Ġconstruct": 9097,
      "Ġdescriptor": 9098,
      "reserve": 9099,
      "ĠisValid": 9100,
      "Ġgateway": 9101,
      "ĠMed": 9102,
      "ĠDep": 9103,
      "Ġ})(": 9104,
      "ĠBox": 9105,
      "ĠFR": 9106,
      "Exit": 9107,
      "Expanded": 9108,
      "Ġshared": 9109,
      "ĠfilePath": 9110,
      "ORY": 9111,
      "Behavior": 9112,
      "Ġroles": 9113,
      "Ġë§": 9114,
      "physics": 9115,
      "Started": 9116,
      "requests": 9117,
      "Ġshowdown": 9118,
      "interaction": 9119,
      "Detection": 9120,
      "fontSize": 9121,
      "ĠaccountId": 9122,
      "azure": 9123,
      "Authenticated": 9124,
      "Ġprojects": 9125,
      "Posts": 9126,
      "ĠINVALID": 9127,
      "Navbar": 9128,
      "ä½ľ": 9129,
      "BackgroundColor": 9130,
      "PROPER": 9131,
      "ĠFirebase": 9132,
      "Indicator": 9133,
      "Ġtypically": 9134,
      "Ġbelongs": 9135,
      "BL": 9136,
      "Bubble": 9137,
      "Live": 9138,
      "MIT": 9139,
      "Same": 9140,
      "Speech": 9141,
      "Vars": 9142,
      "[$": 9143,
      "beta": 9144,
      "nP": 9145,
      "oi": 9146,
      "Ãł": 9147,
      "Ì¸\",": 9148,
      "ermostat": 9149,
      "ctures": 9150,
      "dec": 9151,
      "Ġ'*": 9152,
      "Ġtakes": 9153,
      "ula": 9154,
      "Ġvert": 9155,
      "Ġ130": 9156,
      "Ġincrement": 9157,
      "android": 9158,
      "(\"@": 9159,
      "ĉĉĉčĊ": 9160,
      "oplay": 9161,
      "program": 9162,
      "Ġunits": 9163,
      "DataSource": 9164,
      "ĠOption": 9165,
      "Ġprojection": 9166,
      "aily": 9167,
      "2012": 9168,
      "Undo": 9169,
      "Ġdocuments": 9170,
      "ĠArg": 9171,
      "posts": 9172,
      "Ġqs": 9173,
      "HTMLDivElement": 9174,
      "íķł": 9175,
      "ritical": 9176,
      "accountId": 9177,
      "Fns": 9178,
      "Ġdocs": 9179,
      "Overflow": 9180,
      "Ġexecution": 9181,
      "Ġmatrix": 9182,
      "Dragging": 9183,
      "ĠAny": 9184,
      "Ġsigned": 9185,
      "Constraint": 9186,
      "åĬ¨": 9187,
      "Usage": 9188,
      "Ġrecords": 9189,
      "cimals": 9190,
      "Issues": 9191,
      "IMG": 9192,
      "ä¿¡": 9193,
      "ðŁĩ": 9194,
      "íķľëĭ¤": 9195,
      "!'": 9196,
      "9375": 9197,
      "Mixin": 9198,
      "Vert": 9199,
      "Virtual": 9200,
      "cbs": 9201,
      "fos": 9202,
      "forkContext": 9203,
      "gos": 9204,
      "Ãº": 9205,
      "Ġlower": 9206,
      "Ķê°Ģ": 9207,
      "Ġcomb": 9208,
      "chalk": 9209,
      "Ġsatis": 9210,
      "vest": 9211,
      "setItem": 9212,
      "Conf": 9213,
      "ĠTemplate": 9214,
      "Ġhex": 9215,
      "Ġexception": 9216,
      "Ġemp": 9217,
      "indent": 9218,
      "ĠLanguage": 9219,
      "ĠEND": 9220,
      "Ġ`,": 9221,
      "Ġmetrics": 9222,
      "Prompt": 9223,
      "httpRequest": 9224,
      "ĠRoom": 9225,
      "107": 9226,
      "TENT": 9227,
      "subParser": 9228,
      "Alarm": 9229,
      "ridge": 9230,
      "Ġadding": 9231,
      "Subnet": 9232,
      "ABEL": 9233,
      "Partial": 9234,
      "åıĳ": 9235,
      "Authentication": 9236,
      "Plugins": 9237,
      "When": 9238,
      "Ġavatar": 9239,
      "parator": 9240,
      "allowed": 9241,
      "ĠValidators": 9242,
      "ĠOrders": 9243,
      "Capture": 9244,
      "MappingURL": 9245,
      "periods": 9246,
      "MBER": 9247,
      "TuyaDataPoints": 9248,
      "Placeholder": 9249,
      "Ġpairs": 9250,
      "Ġcoordinates": 9251,
      "rouped": 9252,
      "Ajax": 9253,
      "Blog": 9254,
      "City": 9255,
      "Ignore": 9256,
      "Less": 9257,
      "Mar": 9258,
      "UND": 9259,
      "Vnet": 9260,
      "ears": 9261,
      "middleware": 9262,
      "pends": 9263,
      "same": 9264,
      "tg": 9265,
      "Ø§": 9266,
      "ë³": 9267,
      "ëĿ¼": 9268,
      "ĴĮ": 9269,
      "ueva": 9270,
      "Ġsw": 9271,
      "ilar": 9272,
      "rimit": 9273,
      "Increment": 9274,
      "Inliner": 9275,
      "quat": 9276,
      "Ġdeferred": 9277,
      "ĠAuto": 9278,
      "appro": 9279,
      "ĠMer": 9280,
      "ĠelNode": 9281,
      "Ġlarge": 9282,
      "mitted": 9283,
      "ViewModel": 9284,
      "validator": 9285,
      "findById": 9286,
      "commended": 9287,
      "00000000": 9288,
      "Market": 9289,
      "sortBy": 9290,
      "LastIndex": 9291,
      "multiple": 9292,
      "Ġê¸°": 9293,
      "ĠColumn": 9294,
      "VERSION": 9295,
      "--------------------------------------------------------------------------------------------": 9296,
      "è¿ĩ": 9297,
      "ĠAlert": 9298,
      "43750": 9299,
      "ĠLocation": 9300,
      "decoration": 9301,
      "Ġrgba": 9302,
      "pagination": 9303,
      "ĠouterContainer": 9304,
      "ITEM": 9305,
      "getElementsByTagName": 9306,
      "ancellation": 9307,
      ">`;": 9308,
      "DC": 9309,
      "DS": 9310,
      "Hierarchy": 9311,
      "IResolvable": 9312,
      "RPC": 9313,
      "_${": 9314,
      "fit": 9315,
      "hold": 9316,
      "mul": 9317,
      "rink": 9318,
      "speed": 9319,
      "çī": 9320,
      "Ġê°Ģ": 9321,
      "ĠStyled": 9322,
      "Ġèİ·åıĸ": 9323,
      "Ġquestions": 9324,
      "Ġcli": 9325,
      "Ġcwd": 9326,
      "isOpen": 9327,
      "Ġsafe": 9328,
      "Ġsuffix": 9329,
      "illiseconds": 9330,
      "apon": 9331,
      "=='": 9332,
      "===": 9333,
      "Remote": 9334,
      "Converter": 9335,
      "ĠTop": 9336,
      "Ġdeli": 9337,
      "Ġhot": 9338,
      "Ġ220": 9339,
      "Ġ211": 9340,
      "ĠAPP": 9341,
      "={\"": 9342,
      "textarea": 9343,
      "Ġassets": 9344,
      "Ġanim": 9345,
      "Ġanimate": 9346,
      "Ġonclick": 9347,
      "agg": 9348,
      "Ġprovenance": 9349,
      "__[\"": 9350,
      "acute": 9351,
      "avor": 9352,
      "Ġattempt": 9353,
      "Shader": 9354,
      "ieves": 9355,
      "ĠëĤ": 9356,
      "php": 9357,
      "executor": 9358,
      "alculated": 9359,
      "Completion": 9360,
      "observe": 9361,
      "Detector": 9362,
      "Ġmatching": 9363,
      "themes": 9364,
      "registerBrowser": 9365,
      "mousedown": 9366,
      "Adapter": 9367,
      "Readable": 9368,
      "Redirect": 9369,
      "Ġpositive": 9370,
      "Ġnecessary": 9371,
      "fixtures": 9372,
      "insertBefore": 9373,
      "Payment": 9374,
      "Ġregistered": 9375,
      "PrototypeOf": 9376,
      "valuation": 9377,
      "çĽ®": 9378,
      "Ġdimensions": 9379,
      "Scalar": 9380,
      "interpolation": 9381,
      "detectChanges": 9382,
      "ybridConnection": 9383,
      "ĠRepresents": 9384,
      "registerBrowserEvent": 9385,
      ")</": 9386,
      "219": 9387,
      "Azure": 9388,
      "CTION": 9389,
      "Esc": 9390,
      "Other": 9391,
      "]]);": 9392,
      "`}": 9393,
      "gallery": 9394,
      "rpc": 9395,
      "ì¤": 9396,
      "inv": 9397,
      "invoice": 9398,
      "Ġprom": 9399,
      "pets": 9400,
      "las": 9401,
      "Ġcondition": 9402,
      "Ġslide": 9403,
      "adjust": 9404,
      "Ġdy": 9405,
      "Ġ119": 9406,
      "Ġ[`": 9407,
      "Ġiso": 9408,
      "ĠAv": 9409,
      "ĠPlatform": 9410,
[...]
